{
  "version": "1.0",
  "truncation": null,
  "padding": null,
  "added_tokens": [
    {
      "id": 0,
      "content": "<pad>",
      "single_word": false,
      "lstrip": false,
      "rstrip": false,
      "normalized": false,
      "special": true
    },
    {
      "id": 1,
      "content": "<bos>",
      "single_word": false,
      "lstrip": false,
      "rstrip": false,
      "normalized": false,
      "special": true
    },
    {
      "id": 2,
      "content": "<eos>",
      "single_word": false,
      "lstrip": false,
      "rstrip": false,
      "normalized": false,
      "special": true
    },
    {
      "id": 3,
      "content": "<unk>",
      "single_word": false,
      "lstrip": false,
      "rstrip": false,
      "normalized": false,
      "special": true
    },
    {
      "id": 4,
      "content": "<user>",
      "single_word": false,
      "lstrip": false,
      "rstrip": false,
      "normalized": false,
      "special": true
    },
    {
      "id": 5,
      "content": "<reply>",
      "single_word": false,
      "lstrip": false,
      "rstrip": false,
      "normalized": false,
      "special": true
    },
    {
      "id": 6,
      "content": "<sep>",
      "single_word": false,
      "lstrip": false,
      "rstrip": false,
      "normalized": false,
      "special": true
    }
  ],
  "normalizer": null,
  "pre_tokenizer": {
    "type": "ByteLevel",
    "add_prefix_space": false,
    "trim_offsets": true,
    "use_regex": true
  },
  "post_processor": {
    "type": "TemplateProcessing",
    "single": [
      {
        "SpecialToken": {
          "id": "<bos>",
          "type_id": 0
        }
      },
      {
        "Sequence": {
          "id": "A",
          "type_id": 0
        }
      },
      {
        "SpecialToken": {
          "id": "<eos>",
          "type_id": 0
        }
      }
    ],
    "pair": [
      {
        "SpecialToken": {
          "id": "<bos>",
          "type_id": 0
        }
      },
      {
        "Sequence": {
          "id": "A",
          "type_id": 0
        }
      },
      {
        "SpecialToken": {
          "id": "<eos>",
          "type_id": 0
        }
      },
      {
        "Sequence": {
          "id": "B",
          "type_id": 1
        }
      },
      {
        "SpecialToken": {
          "id": "<eos>",
          "type_id": 1
        }
      }
    ],
    "special_tokens": {
      "<bos>": {
        "id": "<bos>",
        "ids": [
          1
        ],
        "tokens": [
          "<bos>"
        ]
      },
      "<eos>": {
        "id": "<eos>",
        "ids": [
          2
        ],
        "tokens": [
          "<eos>"
        ]
      }
    }
  },
  "decoder": {
    "type": "ByteLevel",
    "add_prefix_space": true,
    "trim_offsets": true,
    "use_regex": true
  },
  "model": {
    "type": "BPE",
    "dropout": null,
    "unk_token": "<unk>",
    "continuing_subword_prefix": null,
    "end_of_word_suffix": null,
    "fuse_unk": false,
    "byte_fallback": false,
    "ignore_merges": false,
    "vocab": {
      "<pad>": 0,
      "<bos>": 1,
      "<eos>": 2,
      "<unk>": 3,
      "<user>": 4,
      "<reply>": 5,
      "<sep>": 6,
      "!": 7,
      "\"": 8,
      "#": 9,
      "$": 10,
      "%": 11,
      "&": 12,
      "'": 13,
      "(": 14,
      ")": 15,
      "*": 16,
      "+": 17,
      ",": 18,
      "-": 19,
      ".": 20,
      "/": 21,
      "0": 22,
      "1": 23,
      "2": 24,
      "3": 25,
      "4": 26,
      "5": 27,
      "6": 28,
      "7": 29,
      "8": 30,
      "9": 31,
      ":": 32,
      ";": 33,
      "<": 34,
      "=": 35,
      ">": 36,
      "?": 37,
      "@": 38,
      "A": 39,
      "B": 40,
      "C": 41,
      "D": 42,
      "E": 43,
      "F": 44,
      "G": 45,
      "H": 46,
      "I": 47,
      "J": 48,
      "K": 49,
      "L": 50,
      "M": 51,
      "N": 52,
      "O": 53,
      "P": 54,
      "Q": 55,
      "R": 56,
      "S": 57,
      "T": 58,
      "U": 59,
      "V": 60,
      "W": 61,
      "X": 62,
      "Y": 63,
      "Z": 64,
      "[": 65,
      "\\": 66,
      "]": 67,
      "^": 68,
      "_": 69,
      "`": 70,
      "a": 71,
      "b": 72,
      "c": 73,
      "d": 74,
      "e": 75,
      "f": 76,
      "g": 77,
      "h": 78,
      "i": 79,
      "j": 80,
      "k": 81,
      "l": 82,
      "m": 83,
      "n": 84,
      "o": 85,
      "p": 86,
      "q": 87,
      "r": 88,
      "s": 89,
      "t": 90,
      "u": 91,
      "v": 92,
      "w": 93,
      "x": 94,
      "y": 95,
      "z": 96,
      "{": 97,
      "|": 98,
      "}": 99,
      "~": 100,
      "¡": 101,
      "¢": 102,
      "£": 103,
      "¤": 104,
      "¥": 105,
      "¦": 106,
      "§": 107,
      "¨": 108,
      "©": 109,
      "ª": 110,
      "«": 111,
      "¬": 112,
      "®": 113,
      "¯": 114,
      "°": 115,
      "±": 116,
      "²": 117,
      "³": 118,
      "´": 119,
      "µ": 120,
      "¶": 121,
      "·": 122,
      "¸": 123,
      "¹": 124,
      "º": 125,
      "»": 126,
      "¼": 127,
      "½": 128,
      "¾": 129,
      "¿": 130,
      "À": 131,
      "Á": 132,
      "Â": 133,
      "Ã": 134,
      "Ä": 135,
      "Å": 136,
      "Æ": 137,
      "Ç": 138,
      "È": 139,
      "É": 140,
      "Ê": 141,
      "Ë": 142,
      "Ì": 143,
      "Í": 144,
      "Î": 145,
      "Ï": 146,
      "Ð": 147,
      "Ñ": 148,
      "Ò": 149,
      "Ó": 150,
      "Ô": 151,
      "Õ": 152,
      "Ö": 153,
      "×": 154,
      "Ø": 155,
      "Ù": 156,
      "Ú": 157,
      "Û": 158,
      "Ü": 159,
      "Ý": 160,
      "Þ": 161,
      "ß": 162,
      "à": 163,
      "á": 164,
      "â": 165,
      "ã": 166,
      "ä": 167,
      "å": 168,
      "æ": 169,
      "ç": 170,
      "è": 171,
      "é": 172,
      "ê": 173,
      "ë": 174,
      "ì": 175,
      "í": 176,
      "î": 177,
      "ï": 178,
      "ð": 179,
      "ñ": 180,
      "ò": 181,
      "ó": 182,
      "ô": 183,
      "õ": 184,
      "ö": 185,
      "÷": 186,
      "ø": 187,
      "ù": 188,
      "ú": 189,
      "û": 190,
      "ü": 191,
      "ý": 192,
      "þ": 193,
      "ÿ": 194,
      "Ā": 195,
      "ā": 196,
      "Ă": 197,
      "ă": 198,
      "Ą": 199,
      "ą": 200,
      "Ć": 201,
      "ć": 202,
      "Ĉ": 203,
      "ĉ": 204,
      "Ċ": 205,
      "ċ": 206,
      "Č": 207,
      "č": 208,
      "Ď": 209,
      "ď": 210,
      "Đ": 211,
      "đ": 212,
      "Ē": 213,
      "ē": 214,
      "Ĕ": 215,
      "ĕ": 216,
      "Ė": 217,
      "ė": 218,
      "Ę": 219,
      "ę": 220,
      "Ě": 221,
      "ě": 222,
      "Ĝ": 223,
      "ĝ": 224,
      "Ğ": 225,
      "ğ": 226,
      "Ġ": 227,
      "ġ": 228,
      "Ģ": 229,
      "ģ": 230,
      "Ĥ": 231,
      "ĥ": 232,
      "Ħ": 233,
      "ħ": 234,
      "Ĩ": 235,
      "ĩ": 236,
      "Ī": 237,
      "ī": 238,
      "Ĭ": 239,
      "ĭ": 240,
      "Į": 241,
      "į": 242,
      "İ": 243,
      "ı": 244,
      "Ĳ": 245,
      "ĳ": 246,
      "Ĵ": 247,
      "ĵ": 248,
      "Ķ": 249,
      "ķ": 250,
      "ĸ": 251,
      "Ĺ": 252,
      "ĺ": 253,
      "Ļ": 254,
      "ļ": 255,
      "Ľ": 256,
      "ľ": 257,
      "Ŀ": 258,
      "ŀ": 259,
      "Ł": 260,
      "ł": 261,
      "Ń": 262,
      "Ġt": 263,
      "Ġa": 264,
      "in": 265,
      "čĊ": 266,
      "on": 267,
      "he": 268,
      "ti": 269,
      "re": 270,
      "Ġthe": 271,
      "er": 272,
      "Ġs": 273,
      "Ġo": 274,
      "en": 275,
      "al": 276,
      "Ġc": 277,
      "or": 278,
      "at": 279,
      "tion": 280,
      "es": 281,
      "Ġof": 282,
      "is": 283,
      "Ġp": 284,
      "an": 285,
      "ed": 286,
      "Ġf": 287,
      "ar": 288,
      "it": 289,
      "ro": 290,
      "ing": 291,
      "Ġan": 292,
      "Ġin": 293,
      "Ġw": 294,
      "Ġd": 295,
      "Ġm": 296,
      "ic": 297,
      "Ġb": 298,
      "le": 299,
      "Ġand": 300,
      "ation": 301,
      "as": 302,
      "Ġe": 303,
      "Ġto": 304,
      "el": 305,
      "et": 306,
      "ent": 307,
      "Ġre": 308,
      "ct": 309,
      "st": 310,
      "Ġth": 311,
      "om": 312,
      "im": 313,
      "ul": 314,
      "Ġn": 315,
      "ra": 316,
      "ly": 317,
      "ve": 318,
      "un": 319,
      "ur": 320,
      "si": 321,
      "od": 322,
      "ce": 323,
      "Ġis": 324,
      "Ġl": 325,
      "Ġfor": 326,
      "us": 327,
      "ol": 328,
      "Ġg": 329,
      "ith": 330,
      "Ġpro": 331,
      "ch": 332,
      "Ġst": 333,
      "tic": 334,
      "ow": 335,
      "Ġcon": 336,
      "Ġh": 337,
      "qu": 338,
      "ĠT": 339,
      "per": 340,
      "Ġon": 341,
      "ig": 342,
      "Ġthat": 343,
      "res": 344,
      "am": 345,
      "Ġwith": 346,
      "ut": 347,
      "il": 348,
      "Ġ$": 349,
      "um": 350,
      "ver": 351,
      "Ġex": 352,
      "se": 353,
      "ity": 354,
      "ot": 355,
      "id": 356,
      "Ġwe": 357,
      "ate": 358,
      "We": 359,
      "em": 360,
      "ec": 361,
      "pl": 362,
      "Ġ(": 363,
      "ab": 364,
      "if": 365,
      "ge": 366,
      "ri": 367,
      "ter": 368,
      "the": 369,
      "ect": 370,
      "Ġas": 371,
      "Ġal": 372,
      "Ġbe": 373,
      "omp": 374,
      "Ġare": 375,
      "ction": 376,
      "ĠThe": 377,
      "ure": 378,
      "ations": 379,
      "os": 380,
      "Ġmod": 381,
      "Ġv": 382,
      "ir": 383,
      "Ġby": 384,
      "ĠWe": 385,
      "Ġsp": 386,
      "Ġsu": 387,
      "iz": 388,
      "und": 389,
      "pro": 390,
      "ts": 391,
      "ĠI": 392,
      "ac": 393,
      "ical": 394,
      "for": 395,
      "ain": 396,
      "di": 397,
      "ant": 398,
      "ran": 399,
      "Ġcomp": 400,
      "Ġwh": 401,
      "rom": 402,
      "ener": 403,
      "Ġus": 404,
      "ist": 405,
      "sion": 406,
      "Ġmodel": 407,
      "Ġthis": 408,
      "Ġres": 409,
      "ag": 410,
      "Ġde": 411,
      "Ġsh": 412,
      "ren": 413,
      "ess": 414,
      "du": 415,
      "tive": 416,
      "ment": 417,
      "Ġat": 418,
      "oc": 419,
      "ich": 420,
      "ff": 421,
      "ated": 422,
      "and": 423,
      "ĠS": 424,
      "ĠA": 425,
      "form": 426,
      "ore": 427,
      "igh": 428,
      "op": 429,
      "ud": 430,
      "Ġap": 431,
      "ine": 432,
      "ap": 433,
      "ble": 434,
      "og": 435,
      "Ġfrom": 436,
      "ution": 437,
      "Ġne": 438,
      "Ġor": 439,
      "ay": 440,
      "ad": 441,
      "Ġpar": 442,
      "Ġqu": 443,
      "red": 444,
      "Ġsy": 445,
      "Ġwhich": 446,
      "th": 447,
      "Ġim": 448,
      "vel": 449,
      "ari": 450,
      "ers": 451,
      "ru": 452,
      "ork": 453,
      "te": 454,
      "tim": 455,
      "ĠC": 456,
      "Ġob": 457,
      "Ġcan": 458,
      "ĠM": 459,
      "ally": 460,
      "ph": 461,
      "ass": 462,
      "etw": 463,
      "Ġch": 464,
      "ĠIn": 465,
      "con": 466,
      "ĠH": 467,
      "Ġco": 468,
      "Ġcl": 469,
      "Ġmet": 470,
      "Ġit": 471,
      "act": 472,
      "ous": 473,
      "to": 474,
      "ence": 475,
      "end": 476,
      "Ġshow": 477,
      "Ġle": 478,
      "ĠF": 479,
      "able": 480,
      "ies": 481,
      "stem": 482,
      "all": 483,
      "ance": 484,
      "Ġdat": 485,
      "Ġsc": 486,
      "ave": 487,
      "fe": 488,
      "Ġresul": 489,
      "resent": 490,
      "up": 491,
      "ion": 492,
      "ell": 493,
      "de": 494,
      "of": 495,
      "hod": 496,
      "ach": 497,
      "Ġdis": 498,
      "der": 499,
      "ron": 500,
      "rib": 501,
      "ric": 502,
      "Ġac": 503,
      "ple": 504,
      "ary": 505,
      "ĠB": 506,
      "Ġ$\\": 507,
      "Ġper": 508,
      "Ġme": 509,
      "Ġsystem": 510,
      "ties": 511,
      "ase": 512,
      "Ġse": 513,
      "tial": 514,
      "feren": 515,
      "eld": 516,
      "Ġun": 517,
      "ys": 518,
      "ace": 519,
      "ield": 520,
      "tain": 521,
      "vi": 522,
      "ms": 523,
      "ates": 524,
      "wo": 525,
      "ak": 526,
      "Ġph": 527,
      "ular": 528,
      "Ġgener": 529,
      "ĠL": 530,
      "ign": 531,
      "ves": 532,
      "Ġmethod": 533,
      "por": 534,
      "ne": 535,
      "Ġeff": 536,
      "Ġinter": 537,
      "ased": 538,
      "cl": 539,
      "Ġ1": 540,
      "tical": 541,
      "so": 542,
      "ruct": 543,
      "ĠG": 544,
      "olution": 545,
      "ser": 546,
      "ens": 547,
      "Ġwhe": 548,
      "ound": 549,
      "est": 550,
      "Ġdata": 551,
      "Ġdif": 552,
      "ose": 553,
      "Ġpa": 554,
      "Ġad": 555,
      "unction": 556,
      "his": 557,
      "Ġ\\": 558,
      "Ġk": 559,
      "Ġr": 560,
      "Ġtwo": 561,
      "low": 562,
      "}$": 563,
      "ĠO": 564,
      "Ġev": 565,
      "Ġsim": 566,
      "ved": 567,
      "Ġtran": 568,
      "Ġcont": 569,
      "Ġpo": 570,
      "ility": 571,
      "Ġfin": 572,
      "Ġprop": 573,
      "lect": 574,
      "Ġappro": 575,
      "enc": 576,
      "ĠP": 577,
      "ther": 578,
      "Ġdet": 579,
      "me": 580,
      "ents": 581,
      "ory": 582,
      "age": 583,
      "ide": 584,
      "rain": 585,
      "tions": 586,
      "ust": 587,
      "ĠD": 588,
      "ĠR": 589,
      "her": 590,
      "Ġop": 591,
      "ight": 592,
      "ial": 593,
      "Ġanal": 594,
      "Ġresults": 595,
      "ard": 596,
      "ors": 597,
      "Ġnon": 598,
      "ime": 599,
      "een": 600,
      "ex": 601,
      "ax": 602,
      "ization": 603,
      "Ġhave": 604,
      "Ġrel": 605,
      "our": 606,
      "ati": 607,
      "plic": 608,
      "ĠN": 609,
      "Ġalso": 610,
      "etween": 611,
      "ack": 612,
      "Ġour": 613,
      "yn": 614,
      "ree": 615,
      "alu": 616,
      "Ġform": 617,
      "Ġmo": 618,
      "duc": 619,
      "ug": 620,
      "cess": 621,
      "ative": 622,
      "ension": 623,
      "Ġfield": 624,
      "olog": 625,
      "ĠThis": 626,
      "Ġdist": 627,
      "Ġen": 628,
      "Ġ2": 629,
      "ite": 630,
      "ill": 631,
      "ures": 632,
      "_{": 633,
      "ĠE": 634,
      "ature": 635,
      "Ġnum": 636,
      "Ġdes": 637,
      "port": 638,
      "ath": 639,
      "Ġfunction": 640,
      "Ġra": 641,
      "par": 642,
      "gy": 643,
      "Ġar": 644,
      "Ġpresent": 645,
      "Ġequ": 646,
      "ven": 647,
      "ating": 648,
      "Ġthese": 649,
      "Ġdi": 650,
      "Ġnot": 651,
      "sc": 652,
      "Ġcor": 653,
      "Ġhas": 654,
      "udy": 655,
      "erm": 656,
      "Ġbetween": 657,
      "Ġdifferen": 658,
      "Ġgra": 659,
      "Ġpaper": 660,
      "ber": 661,
      "yp": 662,
      "Ġusing": 663,
      "met": 664,
      "Ġmat": 665,
      "Ġobser": 666,
      "amet": 667,
      "Ġem": 668,
      "Ġvari": 669,
      "ome": 670,
      "Ġconst": 671,
      "arge": 672,
      "Ġsuch": 673,
      "ulti": 674,
      "ting": 675,
      "ning": 676,
      "ynam": 677,
      "Ġacc": 678,
      "pend": 679,
      "rac": 680,
      "oth": 681,
      "Ġpl": 682,
      "antum": 683,
      "Ġro": 684,
      "Ġno": 685,
      "Ġcom": 686,
      "Ġproble": 687,
      "Ġstudy": 688,
      "ond": 689,
      "Ġext": 690,
      "ry": 691,
      "Ġmodels": 692,
      "Ġreg": 693,
      "Ġab": 694,
      "sp": 695,
      "perim": 696,
      "Ġhigh": 697,
      "^{": 698,
      "are": 699,
      "ici": 700,
      "Ġhe": 701,
      "etwork": 702,
      "ang": 703,
      "gor": 704,
      "ific": 705,
      "under": 706,
      "osed": 707,
      "Ġdisc": 708,
      "Ġtime": 709,
      "imension": 710,
      "Ġpre": 711,
      "ark": 712,
      "ability": 713,
      "ics": 714,
      "ribution": 715,
      "energy": 716,
      "ugh": 717,
      "ely": 718,
      "Ġnew": 719,
      "Ġrec": 720,
      "Ġtrans": 721,
      "int": 722,
      "Ġone": 723,
      "lu": 724,
      "ized": 725,
      "Ġgro": 726,
      "The": 727,
      "ject": 728,
      "Ġprov": 729,
      "agne": 730,
      "ong": 731,
      "Ġset": 732,
      "fin": 733,
      "ma": 734,
      "ie": 735,
      "gorith": 736,
      "rate": 737,
      ")$": 738,
      "out": 739,
      "Ġint": 740,
      "su": 741,
      "asure": 742,
      "Ġsub": 743,
      "ces": 744,
      "Ġits": 745,
      "Ġtheir": 746,
      "ments": 747,
      "les": 748,
      "Ġquantum": 749,
      "Ġexp": 750,
      "Ġover": 751,
      "Ġpartic": 752,
      "Ġsign": 753,
      "rel": 754,
      "Ġunder": 755,
      "Ġperform": 756,
      "bit": 757,
      "Ġfe": 758,
      "Ġdec": 759,
      "dition": 760,
      "ob": 761,
      "inear": 762,
      "ual": 763,
      "tif": 764,
      "Ġout": 765,
      "Ġstruct": 766,
      "ĠW": 767,
      "ni": 768,
      "Ġran": 769,
      "Ġgi": 770,
      "Ġmulti": 771,
      "Ġspect": 772,
      "irst": 773,
      "Ġfind": 774,
      "ep": 775,
      ").": 776,
      "math": 777,
      "Ġlow": 778,
      "00": 779,
      "ile": 780,
      "Ġgeneral": 781,
      "ving": 782,
      "Ġfra": 783,
      "Ġnetwork": 784,
      "Ġsam": 785,
      "agnetic": 786,
      "Ġparamet": 787,
      "ip": 788,
      "ential": 789,
      "ational": 790,
      "Ġcomple": 791,
      "ral": 792,
      "ied": 793,
      "ast": 794,
      "Ġstate": 795,
      "formation": 796,
      "vity": 797,
      "Ġwhere": 798,
      "Ġass": 799,
      "Ġver": 800,
      "mmet": 801,
      "Ġman": 802,
      "Ġlear": 803,
      "Ġenergy": 804,
      "Ġalgorith": 805,
      "rent": 806,
      "Ġall": 807,
      "action": 808,
      "Ġwork": 809,
      "Ġmass": 810,
      "Ġexperim": 811,
      "Ġbased": 812,
      "),": 813,
      "now": 814,
      "Ġproper": 815,
      "Ġcomput": 816,
      "Ġcol": 817,
      "Ġdifferent": 818,
      "Ġes": 819,
      "Ġboth": 820,
      "Ġmeasure": 821,
      "'s": 822,
      "arg": 823,
      "ail": 824,
      "Ġbound": 825,
      "Ġscal": 826,
      "ise": 827,
      "Ġthan": 828,
      "Ġelect": 829,
      "Ġobtain": 830,
      "Ġproblem": 831,
      "Ġloc": 832,
      "ĠK": 833,
      "imit": 834,
      "ĠOur": 835,
      "present": 836,
      "redic": 837,
      "Ġspace": 838,
      "Ġbeen": 839,
      "Ġwell": 840,
      "Ġclass": 841,
      "Ġlarge": 842,
      "ars": 843,
      "ress": 844,
      "ize": 845,
      "Ġsur": 846,
      "rm": 847,
      "Ġdynam": 848,
      "Ġconsi": 849,
      "Ġsystems": 850,
      "Ġsuper": 851,
      "istic": 852,
      "clud": 853,
      "Ġprocess": 854,
      "sive": 855,
      "Ġtheory": 856,
      "Ġcur": 857,
      "Ġapproach": 858,
      "ulation": 859,
      "comp": 860,
      "onst": 861,
      "Ġ3": 862,
      "sition": 863,
      "ĠU": 864,
      "ysis": 865,
      "Ġuse": 866,
      "ically": 867,
      "eri": 868,
      "Ġused": 869,
      "ue": 870,
      "ever": 871,
      "ll": 872,
      "ech": 873,
      "emonst": 874,
      "ik": 875,
      "ency": 876,
      "tig": 877,
      "Ġsolution": 878,
      "Ġmore": 879,
      "over": 880,
      "Ġsm": 881,
      "Ġinte": 882,
      "Ġup": 883,
      "atter": 884,
      "Ġfirst": 885,
      "Ġeffect": 886,
      "velop": 887,
      "Ġnumber": 888,
      "ural": 889,
      "ub": 890,
      "chan": 891,
      "cre": 892,
      "old": 893,
      "Ġinto": 894,
      "ator": 895,
      "ection": 896,
      "ective": 897,
      "ix": 898,
      "ensity": 899,
      "$-": 900,
      "tex": 901,
      "omet": 902,
      "Ġestim": 903,
      "Ġorder": 904,
      "vely": 905,
      "ases": 906,
      "gra": 907,
      "Ġexpl": 908,
      "vari": 909,
      "aus": 910,
      "Ġlimit": 911,
      "eng": 912,
      "aract": 913,
      "In": 914,
      "imensional": 915,
      "Ġreal": 916,
      "mod": 917,
      "ulations": 918,
      "arch": 919,
      "ets": 920,
      "duced": 921,
      "$\\": 922,
      "orm": 923,
      "Ġproposed": 924,
      "$,": 925,
      "Ġother": 926,
      "Ġdesc": 927,
      "Ġpredic": 928,
      "Ġwhen": 929,
      "ks": 930,
      "icient": 931,
      "ib": 932,
      "ten": 933,
      "sh": 934,
      "aracter": 935,
      "upl": 936,
      "duct": 937,
      "Ġtyp": 938,
      "Ġonly": 939,
      "alc": 940,
      "Ġmethods": 941,
      "vestig": 942,
      "rin": 943,
      "Ġsome": 944,
      "Ġsol": 945,
      "$.": 946,
      "ty": 947,
      "Ġbut": 948,
      "ian": 949,
      "owever": 950,
      "Ġoptim": 951,
      "ted": 952,
      "Ġradi": 953,
      "Ġdistribution": 954,
      "Ġlearning": 955,
      "Ġanalysis": 956,
      "qui": 957,
      "emper": 958,
      "ons": 959,
      "rough": 960,
      "ole": 961,
      "ental": 962,
      "Ġvalu": 963,
      "rong": 964,
      "work": 965,
      "duce": 966,
      "Ġdemonst": 967,
      "Ġsing": 968,
      "Ġag": 969,
      "alax": 970,
      "Ġphase": 971,
      "hes": 972,
      "based": 973,
      "ision": 974,
      "Ġtech": 975,
      "Ġdo": 976,
      "atic": 977,
      "{\\": 978,
      "udi": 979,
      "Ġ0": 980,
      "Ġstructure": 981,
      "Ġproperties": 982,
      "Ġam": 983,
      "fer": 984,
      "Ġspin": 985,
      "rect": 986,
      "sible": 987,
      "Ġapplic": 988,
      "ss": 989,
      "otential": 990,
      "ected": 991,
      "Ġcase": 992,
      "Ġy": 993,
      "hen": 994,
      "resp": 995,
      "oun": 996,
      "xim": 997,
      "Ġcons": 998,
      "iden": 999,
      "uss": 1000,
      "Ġdevelop": 1001,
      "Ġoper": 1002,
      "Ġgroup": 1003,
      "Ġpropose": 1004,
      "vers": 1005,
      "urther": 1006,
      "uld": 1007,
      "Ġpos": 1008,
      "sy": 1009,
      "ological": 1010,
      "Ġobserv": 1011,
      "ost": 1012,
      "Ġresp": 1013,
      "Ġanaly": 1014,
      "Ġderi": 1015,
      "ord": 1016,
      "atures": 1017,
      "Ġknow": 1018,
      "Ġintro": 1019,
      "ities": 1020,
      "val": 1021,
      "ission": 1022,
      "Ġexist": 1023,
      "Ġinvestig": 1024,
      "au": 1025,
      "eff": 1026,
      "rop": 1027,
      "ication": 1028,
      "Ġperformance": 1029,
      "ages": 1030,
      "avi": 1031,
      "ton": 1032,
      "cle": 1033,
      "ality": 1034,
      "Ġgraph": 1035,
      "sim": 1036,
      "ings": 1037,
      "atis": 1038,
      "ificant": 1039,
      "ption": 1040,
      "Ġinclud": 1041,
      "mework": 1042,
      "Ġalgorithm": 1043,
      "Ġconsider": 1044,
      "depend": 1045,
      "bin": 1046,
      "Ġcomm": 1047,
      "Ġrepresent": 1048,
      "Ġmagnetic": 1049,
      "Ġdepend": 1050,
      "dom": 1051,
      "with": 1052,
      "Ġspec": 1053,
      "ross": 1054,
      "Ġlocal": 1055,
      "dimensional": 1056,
      "Ġstates": 1057,
      "Ġcalc": 1058,
      "ower": 1059,
      "Ġtra": 1060,
      "Ġimpro": 1061,
      "sig": 1062,
      "face": 1063,
      "ness": 1064,
      "Ġsmall": 1065,
      "Ġstrong": 1066,
      "Ġcomplex": 1067,
      "Ġthere": 1068,
      "Ġcharacter": 1069,
      "ecti": 1070,
      "Ġflu": 1071,
      "Ġinteraction": 1072,
      "Ġinformation": 1073,
      "nel": 1074,
      "als": 1075,
      "round": 1076,
      "niqu": 1077,
      "Ġ-": 1078,
      "ism": 1079,
      "Ġallow": 1080,
      "emperature": 1081,
      "ult": 1082,
      "Ġeach": 1083,
      "Ġgalax": 1084,
      "Ġsec": 1085,
      "ĠIt": 1086,
      "Ġdom": 1087,
      "ĠV": 1088,
      "Ġj": 1089,
      "Ġrecent": 1090,
      "Ġdiscuss": 1091,
      "Ġexam": 1092,
      "sing": 1093,
      "geb": 1094,
      "Ġapp": 1095,
      "ov": 1096,
      "hed": 1097,
      "Ġwas": 1098,
      "urb": 1099,
      "ology": 1100,
      "Ġdeterm": 1101,
      "Ġdensity": 1102,
      "Ġcoupl": 1103,
      "Ġmay": 1104,
      "ĠFor": 1105,
      "Ġany": 1106,
      "ful": 1107,
      "Ġtas": 1108,
      "Ġpotential": 1109,
      "Ġthree": 1110,
      "ike": 1111,
      "Ġmin": 1112,
      "ared": 1113,
      "Ġincre": 1114,
      "pre": 1115,
      "Ġprovide": 1116,
      "cur": 1117,
      "Ġmost": 1118,
      "Ġtrain": 1119,
      "Ġiden": 1120,
      "vious": 1121,
      "Ġtheore": 1122,
      "Ġstudi": 1123,
      "Ġbl": 1124,
      "ples": 1125,
      "agn": 1126,
      "Ġthrough": 1127,
      "av": 1128,
      "cal": 1129,
      "ene": 1130,
      "anc": 1131,
      "havi": 1132,
      "Ġfact": 1133,
      "Ġif": 1134,
      "time": 1135,
      "com": 1136,
      "Ġframework": 1137,
      "Ġsour": 1138,
      "that": 1139,
      "po": 1140,
      "oci": 1141,
      "put": 1142,
      "Ġprovid": 1143,
      "ertain": 1144,
      "ators": 1145,
      "olar": 1146,
      "Ġparticular": 1147,
      "Ġsingle": 1148,
      "Ġdesign": 1149,
      "respond": 1150,
      "Ġlead": 1151,
      "Ġresult": 1152,
      "Ġphys": 1153,
      "ĠTo": 1154,
      "Ġhy": 1155,
      "Ġfound": 1156,
      "verse": 1157,
      "Ġdescrib": 1158,
      "ind": 1159,
      "ĠHowever": 1160,
      "Ġhow": 1161,
      "Ġcontro": 1162,
      "Ġter": 1163,
      "Ġdue": 1164,
      "ane": 1165,
      "Ġelectron": 1166,
      "requ": 1167,
      "Ġsymmet": 1168,
      "Ġobserved": 1169,
      "chie": 1170,
      "ia": 1171,
      "ray": 1172,
      "Ġlinear": 1173,
      "Ġsignificant": 1174,
      "Ġachie": 1175,
      "Ġtop": 1176,
      "Ġobtained": 1177,
      "inu": 1178,
      "Ġinteg": 1179,
      "10": 1180,
      "Ġthen": 1181,
      "cor": 1182,
      "art": 1183,
      "Ġpower": 1184,
      "Ġtechniqu": 1185,
      "Ġprob": 1186,
      "Ġphot": 1187,
      "Ġregion": 1188,
      "Ġcap": 1189,
      "Ġparameters": 1190,
      "Ġrequi": 1191,
      "ĠX": 1192,
      "Ġdatas": 1193,
      "aces": 1194,
      "dependent": 1195,
      "text": 1196,
      "anti": 1197,
      "Ġwhile": 1198,
      "sif": 1199,
      "duction": 1200,
      "Ġclust": 1201,
      "gener": 1202,
      "we": 1203,
      "uring": 1204,
      "linear": 1205,
      "lo": 1206,
      "itud": 1207,
      "Ġz": 1208,
      "Ġmechan": 1209,
      "edge": 1210,
      "ew": 1211,
      "Ġapproxim": 1212,
      "rection": 1213,
      "rum": 1214,
      "pt": 1215,
      "ditions": 1216,
      "Ġfinite": 1217,
      "Ġnumer": 1218,
      "Ġfunctions": 1219,
      "Ġterms": 1220,
      "Ġer": 1221,
      "Ġdemonstrate": 1222,
      "Ġbehavi": 1223,
      "tivity": 1224,
      "co": 1225,
      "const": 1226,
      "andard": 1227,
      "ish": 1228,
      "Ġlat": 1229,
      "assif": 1230,
      "inter": 1231,
      "Ġimp": 1232,
      "Ġcorrel": 1233,
      "Ġpoint": 1234,
      "Ġgiven": 1235,
      "Ġge": 1236,
      "Ġstar": 1237,
      "ĠQ": 1238,
      "elf": 1239,
      "fra": 1240,
      "Ġconf": 1241,
      "Ġconstrain": 1242,
      "man": 1243,
      "ucle": 1244,
      "ays": 1245,
      "its": 1246,
      "ward": 1247,
      "Ġmean": 1248,
      "ilar": 1249,
      "Ġmany": 1250,
      "Ġinst": 1251,
      "Ġrem": 1252,
      "usion": 1253,
      "ta": 1254,
      "Ġdynamics": 1255,
      "Ġmain": 1256,
      "ode": 1257,
      "ĠThese": 1258,
      "ier": 1259,
      "Ġ=": 1260,
      "Ġchan": 1261,
      "ood": 1262,
      "Ġsem": 1263,
      "Ġprove": 1264,
      "Ġaut": 1265,
      "astic": 1266,
      "Ġwill": 1267,
      "Ġimport": 1268,
      "Ġwithin": 1269,
      "Ġneut": 1270,
      "Ġatt": 1271,
      "ĠHe": 1272,
      "ensi": 1273,
      "abl": 1274,
      "Ġuni": 1275,
      "Ġ4": 1276,
      "one": 1277,
      "Ġevalu": 1278,
      "veral": 1279,
      "Ġthey": 1280,
      "aw": 1281,
      "Ġtemperature": 1282,
      "gg": 1283,
      "Ġidentif": 1284,
      "Ġlong": 1285,
      "Ġrange": 1286,
      "amma": 1287,
      "Ġent": 1288,
      "mathb": 1289,
      "Ġrate": 1290,
      "wh": 1291,
      "cent": 1292,
      "Ġnovel": 1293,
      "Ġprevious": 1294,
      "axim": 1295,
      "Ġcorrespond": 1296,
      "not": 1297,
      "Ġcurrent": 1298,
      "Ġlevel": 1299,
      "Ġsolutions": 1300,
      "Ġequation": 1301,
      "ances": 1302,
      "Ġmap": 1303,
      "Ġtest": 1304,
      "ines": 1305,
      "ression": 1306,
      "tice": 1307,
      "tern": 1308,
      "ĠJ": 1309,
      "Ġrob": 1310,
      "ext": 1311,
      "Ġlight": 1312,
      "Ġsup": 1313,
      "Ġminim": 1314,
      "eV": 1315,
      "Ġcent": 1316,
      "Ġparameter": 1317,
      "ritical": 1318,
      "Ġalgeb": 1319,
      "Ġcombin": 1320,
      "Ġshown": 1321,
      "dis": 1322,
      "ables": 1323,
      "Ġsame": 1324,
      "istent": 1325,
      "_{\\": 1326,
      "rest": 1327,
      "vic": 1328,
      "Ġnetworks": 1329,
      "Ġaddition": 1330,
      "Ġser": 1331,
      "pha": 1332,
      "Ġpres": 1333,
      "Ġbi": 1334,
      "equ": 1335,
      "ference": 1336,
      "lec": 1337,
      "ength": 1338,
      "Ġconditions": 1339,
      "Ġextend": 1340,
      "Ġobject": 1341,
      "Ġrandom": 1342,
      "row": 1343,
      "Ġeffects": 1344,
      "ough": 1345,
      "ormal": 1346,
      "aking": 1347,
      "by": 1348,
      "Ġvery": 1349,
      "model": 1350,
      "Ġassoci": 1351,
      "dered": 1352,
      "rix": 1353,
      "Ġbec": 1354,
      "iod": 1355,
      "Ġhig": 1356,
      "turb": 1357,
      "Ġevolution": 1358,
      "tically": 1359,
      "Ġequations": 1360,
      "Ġseveral": 1361,
      "Ġdomain": 1362,
      "Ġfeatures": 1363,
      "Ġsche": 1364,
      "Ġexperiments": 1365,
      "ero": 1366,
      "ev": 1367,
      "Ġsurface": 1368,
      "scal": 1369,
      "Ġful": 1370,
      "osm": 1371,
      "Ġknown": 1372,
      "Ġsimple": 1373,
      "Ġav": 1374,
      "Ġcoll": 1375,
      "(\\": 1376,
      "Ġdiff": 1377,
      "ulated": 1378,
      "plement": 1379,
      "Ġwave": 1380,
      "orph": 1381,
      "Ġ5": 1382,
      "ration": 1383,
      "til": 1384,
      "ruction": 1385,
      ".,": 1386,
      "Ġpoly": 1387,
      "perform": 1388,
      "Ġflow": 1389,
      "plo": 1390,
      "be": 1391,
      "cont": 1392,
      "appro": 1393,
      "uch": 1394,
      "ner": 1395,
      "Ġwere": 1396,
      "stand": 1397,
      "Ġ\"": 1398,
      "ake": 1399,
      "Ġpossible": 1400,
      "Ġnear": 1401,
      "Ġchall": 1402,
      "Ġvarious": 1403,
      "Ġgeomet": 1404,
      "ribut": 1405,
      "iron": 1406,
      "Ġ10": 1407,
      "Ġplan": 1408,
      "urac": 1409,
      "Ġabout": 1410,
      "Ġfields": 1411,
      "ract": 1412,
      "Ġeffective": 1413,
      "Ġsugg": 1414,
      "Ġclassif": 1415,
      "Ġtransition": 1416,
      "ĠAs": 1417,
      "tran": 1418,
      "asi": 1419,
      "ock": 1420,
      "erial": 1421,
      "ear": 1422,
      "Ġcontinu": 1423,
      "Ġassum": 1424,
      "ellar": 1425,
      "dif": 1426,
      "ement": 1427,
      "mathbb": 1428,
      "amb": 1429,
      "ns": 1430,
      "oment": 1431,
      "Ġapplications": 1432,
      "Ġdirect": 1433,
      "vect": 1434,
      "reat": 1435,
      "rosc": 1436,
      "Ġstars": 1437,
      "order": 1438,
      "elect": 1439,
      "Ġadd": 1440,
      "Ġtype": 1441,
      "Ġproblems": 1442,
      "Ġtherm": 1443,
      "Ġfrequ": 1444,
      "Ġimage": 1445,
      "20": 1446,
      "reg": 1447,
      "uracy": 1448,
      "Ġgl": 1449,
      "Ġdetect": 1450,
      "Ġbas": 1451,
      "alpha": 1452,
      "Ġdimension": 1453,
      "Ġdefin": 1454,
      "^{-": 1455,
      "ld": 1456,
      "onic": 1457,
      "rated": 1458,
      "ci": 1459,
      "verg": 1460,
      "Ġinvestigate": 1461,
      "Ġsecond": 1462,
      "Ġemission": 1463,
      "abil": 1464,
      "roscop": 1465,
      "Ġerr": 1466,
      "igin": 1467,
      "ould": 1468,
      "ze": 1469,
      "Ġcontrol": 1470,
      "rim": 1471,
      "Ġpair": 1472,
      "plicit": 1473,
      "hi": 1474,
      "ey": 1475,
      "Ġconstruct": 1476,
      "Ġcompon": 1477,
      "Ġincluding": 1478,
      "Ġgalaxies": 1479,
      "Ġinf": 1480,
      "ising": 1481,
      "times": 1482,
      "Ġso": 1483,
      "Ġmaxim": 1484,
      "Ġini": 1485,
      "Ġnumerical": 1486,
      "Ġind": 1487,
      "mp": 1488,
      "Ġfl": 1489,
      "Ġtraining": 1490,
      "lying": 1491,
      "edi": 1492,
      "ort": 1493,
      "Ġeven": 1494,
      "vid": 1495,
      "ollow": 1496,
      "non": 1497,
      "lement": 1498,
      "vis": 1499,
      "ocus": 1500,
      "Ġsimulations": 1501,
      "Ġsize": 1502,
      "Ġsimilar": 1503,
      "angu": 1504,
      "Ġdetermin": 1505,
      "Ġimportant": 1506,
      "Ġmultiple": 1507,
      "vant": 1508,
      "sequ": 1509,
      "Ġconn": 1510,
      "Ġhigher": 1511,
      "Ġasy": 1512,
      "fore": 1513,
      "Ġcompared": 1514,
      "vol": 1515,
      "Ġmic": 1516,
      "ixed": 1517,
      "ift": 1518,
      "Ġmatter": 1519,
      "erg": 1520,
      "Ġalgorithms": 1521,
      "Ġrese": 1522,
      "eta": 1523,
      "Ġnucle": 1524,
      "Ġobservations": 1525,
      "Ġimprove": 1526,
      "izing": 1527,
      "aches": 1528,
      "tics": 1529,
      "Ġoptical": 1530,
      "viron": 1531,
      "ping": 1532,
      "odes": 1533,
      "ount": 1534,
      "cit": 1535,
      "Ġweak": 1536,
      "Ġgive": 1537,
      "inary": 1538,
      "ove": 1539,
      "ified": 1540,
      "Ġdetection": 1541,
      "Ġback": 1542,
      "dist": 1543,
      "This": 1544,
      "Ġexperimental": 1545,
      "Ġstandard": 1546,
      "ĠHere": 1547,
      "Ġefficient": 1548,
      "plied": 1549,
      "ring": 1550,
      "Ġvalue": 1551,
      "ectively": 1552,
      "Ġsequ": 1553,
      "Ġwithout": 1554,
      "Ġ[": 1555,
      "Ġvalues": 1556,
      "ayer": 1557,
      "super": 1558,
      "Ġvia": 1559,
      "irc": 1560,
      "line": 1561,
      "rid": 1562,
      "Ġassociated": 1563,
      "phe": 1564,
      "itude": 1565,
      "uman": 1566,
      "like": 1567,
      "lection": 1568,
      "establ": 1569,
      "ding": 1570,
      "Ġcompar": 1571,
      "enari": 1572,
      "--": 1573,
      "inally": 1574,
      "ints": 1575,
      "asing": 1576,
      "verage": 1577,
      "Ġclassical": 1578,
      "da": 1579,
      "Ġcritical": 1580,
      "more": 1581,
      "Ġbehavior": 1582,
      "Ġmagn": 1583,
      "Ġspectrum": 1584,
      "Ġfurther": 1585,
      "ailable": 1586,
      "ground": 1587,
      "Ġthem": 1588,
      "function": 1589,
      "Ġdeep": 1590,
      "Ġmon": 1591,
      "king": 1592,
      "Ġblack": 1593,
      "bed": 1594,
      "Ġrati": 1595,
      "ulate": 1596,
      "eloc": 1597,
      "ying": 1598,
      "olic": 1599,
      "Ġ20": 1600,
      "Ġintroduce": 1601,
      "Ġmatrix": 1602,
      "partic": 1603,
      "Ġvis": 1604,
      "Ġmeasurements": 1605,
      "Ġaccuracy": 1606,
      "Ġpop": 1607,
      "Ġorigin": 1608,
      "Ġcosm": 1609,
      "ced": 1610,
      "Ġcoupling": 1611,
      "field": 1612,
      "Ġgas": 1613,
      "Ġband": 1614,
      "Ġstatis": 1615,
      "tation": 1616,
      "Ġexisting": 1617,
      "ĠAn": 1618,
      "ories": 1619,
      "Ġquanti": 1620,
      "ense": 1621,
      "Ġscale": 1622,
      "Ġindic": 1623,
      "NN": 1624,
      "Ġthose": 1625,
      "imes": 1626,
      "iter": 1627,
      "variant": 1628,
      "Ġimages": 1629,
      "Ġpolar": 1630,
      "Ġcluster": 1631,
      "oss": 1632,
      "ambda": 1633,
      "Ġsyn": 1634,
      "Ġsource": 1635,
      "attering": 1636,
      "Ġallows": 1637,
      "alled": 1638,
      "set": 1639,
      "Ġformation": 1640,
      "Ġneed": 1641,
      "less": 1642,
      "ences": 1643,
      "Ġabs": 1644,
      "mathcal": 1645,
      "ype": 1646,
      "Ġneural": 1647,
      "onal": 1648,
      "Ġalgebra": 1649,
      "Ġatom": 1650,
      "Ġperiod": 1651,
      "omial": 1652,
      "Ġveloc": 1653,
      "Ġimplement": 1654,
      "ules": 1655,
      "Ġang": 1656,
      "ately": 1657,
      "tially": 1658,
      "Ġlower": 1659,
      "ĠEx": 1660,
      "Ġdeg": 1661,
      "det": 1662,
      "Ġspectral": 1663,
      "vit": 1664,
      "Ġpri": 1665,
      "system": 1666,
      "Ġfocus": 1667,
      "which": 1668,
      "Ġmoment": 1669,
      "right": 1670,
      "Ġreport": 1671,
      "Ġoptimal": 1672,
      "umin": 1673,
      "ants": 1674,
      "Ġglob": 1675,
      "Ġsymmetry": 1676,
      "Ġenh": 1677,
      "hibit": 1678,
      "view": 1679,
      "ture": 1680,
      "Ġu": 1681,
      "atial": 1682,
      "esc": 1683,
      "Ġfil": 1684,
      "Ġnat": 1685,
      "amil": 1686,
      "Ġlarg": 1687,
      "Ġsample": 1688,
      "bility": 1689,
      "}\\": 1690,
      "fter": 1691,
      "Ġoc": 1692,
      "Ġcross": 1693,
      "paramet": 1694,
      "Ġdef": 1695,
      "Ġchannel": 1696,
      "idence": 1697,
      "anguage": 1698,
      "ropy": 1699,
      "ctu": 1700,
      "Ġtasks": 1701,
      "Ġtechniques": 1702,
      "Ġcorresponding": 1703,
      "ects": 1704,
      "Ġmetric": 1705,
      "Ġstudied": 1706,
      "Ġline": 1707,
      "Ġway": 1708,
      "sub": 1709,
      "lear": 1710,
      "own": 1711,
      "Ġprovides": 1712,
      "vector": 1713,
      "gies": 1714,
      "Ġself": 1715,
      "scale": 1716,
      "ifold": 1717,
      "tri": 1718,
      "ogene": 1719,
      "$_": 1720,
      "Ġmaterial": 1721,
      "ĠMore": 1722,
      "certain": 1723,
      "Ġtask": 1724,
      "Ġscenari": 1725,
      "elta": 1726,
      "ras": 1727,
      "Ġval": 1728,
      "Ġspe": 1729,
      "Ġcommun": 1730,
      "pec": 1731,
      "Ġmas": 1732,
      "mu": 1733,
      "Ġfollow": 1734,
      "arm": 1735,
      "Ġrobust": 1736,
      "Ġi": 1737,
      "symmet": 1738,
      "Ġlo": 1739,
      "Ġconstant": 1740,
      "ledge": 1741,
      "zed": 1742,
      "omen": 1743,
      "raph": 1744,
      "Ġmolec": 1745,
      "Ġapplied": 1746,
      "Ġinitial": 1747,
      "ists": 1748,
      "cept": 1749,
      "Ġenviron": 1750,
      "ions": 1751,
      "och": 1752,
      "Ġposi": 1753,
      "Ġcar": 1754,
      "Ġstudies": 1755,
      "ching": 1756,
      "Ġinteractions": 1757,
      "mpto": 1758,
      "etter": 1759,
      "oft": 1760,
      "Ġcontain": 1761,
      "Ġinterest": 1762,
      "Ġcases": 1763,
      "ste": 1764,
      "ga": 1765,
      "auge": 1766,
      "Ġcondition": 1767,
      "Ġopen": 1768,
      "Ġphysical": 1769,
      "ults": 1770,
      "Ġpresented": 1771,
      "Ġgrow": 1772,
      "Ġduring": 1773,
      "Ġboundary": 1774,
      "Ġconsistent": 1775,
      "Ġlattice": 1776,
      "ĠFinally": 1777,
      "Ġchalleng": 1778,
      "Ġestabl": 1779,
      "know": 1780,
      "orld": 1781,
      "Ġavailable": 1782,
      "nomial": 1783,
      "valu": 1784,
      "ains": 1785,
      "lic": 1786,
      "Ġcould": 1787,
      "Ġorbit": 1788,
      "abel": 1789,
      "Ġunderstand": 1790,
      "Ġaddress": 1791,
      "struct": 1792,
      "Ġscheme": 1793,
      "Ġ6": 1794,
      "prop": 1795,
      "tal": 1796,
      "Ġapproaches": 1797,
      "henomen": 1798,
      "Ġexcit": 1799,
      "Ġrelated": 1800,
      "ĠTh": 1801,
      "Ġtheoretical": 1802,
      "pa": 1803,
      "Ġsuggest": 1804,
      "Ġinput": 1805,
      "Ġperturb": 1806,
      "iciency": 1807,
      "Ġfactor": 1808,
      "sign": 1809,
      "Ġcoun": 1810,
      "ears": 1811,
      "Ġresearch": 1812,
      "uture": 1813,
      "ĠFurther": 1814,
      "serv": 1815,
      "rary": 1816,
      "ensor": 1817,
      "Ġend": 1818,
      "uil": 1819,
      "finite": 1820,
      "oid": 1821,
      "aging": 1822,
      "anal": 1823,
      "Ġrelations": 1824,
      "atively": 1825,
      "dynam": 1826,
      "Ġcertain": 1827,
      "duces": 1828,
      "Ġtool": 1829,
      "}(": 1830,
      "Ġfour": 1831,
      "loc": 1832,
      "Ġaction": 1833,
      "Ġred": 1834,
      "Ġstrate": 1835,
      "Ġtarg": 1836,
      "Ġdatasets": 1837,
      "ilib": 1838,
      "Ġnoise": 1839,
      "Ġwa": 1840,
      "Ġdetail": 1841,
      "ade": 1842,
      "Ġprec": 1843,
      "Ġparticle": 1844,
      "Ġprocesses": 1845,
      "Ġfree": 1846,
      "ĠAl": 1847,
      "Ġexplicit": 1848,
      "Ġcaus": 1849,
      "Ġprot": 1850,
      "Ġderive": 1851,
      "Ġstructures": 1852,
      "Ġexact": 1853,
      "Ġzero": 1854,
      "state": 1855,
      "Ġmem": 1856,
      "ĠBy": 1857,
      "vergence": 1858,
      "Ġpresence": 1859,
      "Ġdark": 1860,
      "Ġsepar": 1861,
      "ata": 1862,
      "Ġdiscre": 1863,
      "Ġbel": 1864,
      "Ġerror": 1865,
      "ably": 1866,
      "lex": 1867,
      "Ġlog": 1868,
      "Ġsum": 1869,
      "till": 1870,
      "sem": 1871,
      "Ġrele": 1872,
      "aneous": 1873,
      "que": 1874,
      "Ġpoints": 1875,
      "Ġderived": 1876,
      "trans": 1877,
      "Ġpart": 1878,
      "Ġenc": 1879,
      "hem": 1880,
      "this": 1881,
      "Ġfrequency": 1882,
      "exp": 1883,
      "mark": 1884,
      "achine": 1885,
      "Ġkey": 1886,
      "CD": 1887,
      "Ġnonlinear": 1888,
      "Ġcontext": 1889,
      "Ġreson": 1890,
      "ilibri": 1891,
      "Ġdri": 1892,
      "col": 1893,
      "Ġspatial": 1894,
      "Ġdataset": 1895,
      "Ġparticles": 1896,
      "Ġexhibit": 1897,
      "atisf": 1898,
      "Ġstellar": 1899,
      "tional": 1900,
      "Ġspecific": 1901,
      "dro": 1902,
      "oper": 1903,
      "Ġtri": 1904,
      "Ġwid": 1905,
      "ploy": 1906,
      "ope": 1907,
      "tit": 1908,
      "Ġhuman": 1909,
      "Ġvelocity": 1910,
      "ive": 1911,
      "ither": 1912,
      "from": 1913,
      "izes": 1914,
      "Ġreve": 1915,
      "ety": 1916,
      "Ġprom": 1917,
      "Ġsources": 1918,
      "ape": 1919,
      "Ġscattering": 1920,
      "ody": 1921,
      "sian": 1922,
      "conduct": 1923,
      "Ġgauge": 1924,
      "Ġinvol": 1925,
      "ĠSt": 1926,
      "Ġflux": 1927,
      "}$,": 1928,
      "Ġtimes": 1929,
      "Ġsignal": 1930,
      "Ġdecay": 1931,
      "Ġfraction": 1932,
      "fficient": 1933,
      "ently": 1934,
      "Ġide": 1935,
      "Ġshows": 1936,
      "Ġadap": 1937,
      "Ġdoes": 1938,
      "omorph": 1939,
      "itect": 1940,
      "Ġhyper": 1941,
      "Ġconsidered": 1942,
      "Ġmotion": 1943,
      "Ġglobal": 1944,
      "Ġcost": 1945,
      "Ġpul": 1946,
      "ware": 1947,
      "Ġdevic": 1948,
      "level": 1949,
      "Ġfew": 1950,
      "Ġloss": 1951,
      "roup": 1952,
      "Ġhal": 1953,
      "Ġbetter": 1954,
      "ible": 1955,
      "Ġcontribution": 1956,
      "undam": 1957,
      "Ġratio": 1958,
      "Ġconstraints": 1959,
      "ST": 1960,
      "light": 1961,
      "very": 1962,
      "ryst": 1963,
      "back": 1964,
      "pi": 1965,
      "Ġcode": 1966,
      "Ġspectra": 1967,
      "Ġvol": 1968,
      "Ġexperiment": 1969,
      "eler": 1970,
      "Ġapproximation": 1971,
      "space": 1972,
      "Ġdescribe": 1973,
      "Ġalong": 1974,
      "here": 1975,
      "anced": 1976,
      "divid": 1977,
      "Ġampl": 1978,
      "ĠUsing": 1979,
      "Ġcy": 1980,
      "Ġgap": 1981,
      "differen": 1982,
      ",\\": 1983,
      "Ġgalaxy": 1984,
      "Ġexistence": 1985,
      "ula": 1986,
      "Ġmechanism": 1987,
      "Ġfeature": 1988,
      "ps": 1989,
      "scill": 1990,
      "Ġregular": 1991,
      "bers": 1992,
      "gment": 1993,
      "Ġcommon": 1994,
      "Ġthus": 1995,
      "Ġsignificantly": 1996,
      "Ġapplication": 1997,
      "Ġpath": 1998,
      "Ġpatter": 1999,
      "ench": 2000,
      "Ġprobability": 2001,
      "ests": 2002,
      "Ġaim": 2003,
      "Ġutil": 2004,
      "Ġlength": 2005,
      "Ġoptimization": 2006,
      "Ġhand": 2007,
      "19": 2008,
      "Ġrepresentation": 2009,
      "Ġphysics": 2010,
      "Ġgroups": 2011,
      "Ġbro": 2012,
      "Ġtechnique": 2013,
      "empor": 2014,
      "ilibrium": 2015,
      "Ġfuture": 2016,
      "ink": 2017,
      "Ġvalid": 2018,
      "romagnetic": 2019,
      "Ġsetting": 2020,
      "ochastic": 2021,
      "Ġphenomen": 2022,
      "igur": 2023,
      "Ġpe": 2024,
      "Ġaff": 2025,
      "Ġobjects": 2026,
      "Ġknowledge": 2027,
      "Ġaccur": 2028,
      "Ġques": 2029,
      "Ġcharacteristic": 2030,
      "Ġrole": 2031,
      "Ġsearch": 2032,
      "Ġdeveloped": 2033,
      "Ġet": 2034,
      "SS": 2035,
      "Ġequi": 2036,
      "jective": 2037,
      "Ġprac": 2038,
      "pos": 2039,
      "itting": 2040,
      "ecess": 2041,
      "Ġoscill": 2042,
      "osity": 2043,
      "oint": 2044,
      "Ġear": 2045,
      "Ġrequire": 2046,
      "inf": 2047,
      "ĠZ": 2048,
      "method": 2049,
      "pm": 2050,
      "sil": 2051,
      "cons": 2052,
      "Ġvector": 2053,
      "known": 2054,
      "akes": 2055,
      "tiv": 2056,
      "Ġcirc": 2057,
      "vitational": 2058,
      "ling": 2059,
      "osition": 2060,
      "ĠY": 2061,
      "Ġinterpre": 2062,
      "undamental": 2063,
      "Ġdistance": 2064,
      "tices": 2065,
      "rinci": 2066,
      "Ġexpon": 2067,
      "Ġhel": 2068,
      "ĠMoreover": 2069,
      "son": 2070,
      "Ġasympto": 2071,
      "Ġtotal": 2072,
      "Ġground": 2073,
      "Ġ~": 2074,
      "_\\": 2075,
      "tonian": 2076,
      "Ġrecently": 2077,
      "ĠCon": 2078,
      "igg": 2079,
      "Ġindependent": 2080,
      "Ġarch": 2081,
      "Ġembed": 2082,
      "Ġthermal": 2083,
      "Ġacross": 2084,
      "}$.": 2085,
      "Ġshort": 2086,
      "ince": 2087,
      "Ġpolynomial": 2088,
      "Ġoccur": 2089,
      "Ġtopological": 2090,
      "Ġsupport": 2091,
      "ually": 2092,
      "Ġcorrelation": 2093,
      "Ġgraphs": 2094,
      "LM": 2095,
      "ped": 2096,
      "ots": 2097,
      "Ġgu": 2098,
      "ou": 2099,
      "Ġhom": 2100,
      "Ġstep": 2101,
      "Ġoff": 2102,
      "gram": 2103,
      "ick": 2104,
      "Ġnatural": 2105,
      "12": 2106,
      "Ġtarget": 2107,
      "Ġclassification": 2108,
      "gen": 2109,
      "Ġchang": 2110,
      "Ġhole": 2111,
      "ished": 2112,
      "Ġ8": 2113,
      "Ġneutrin": 2114,
      "Ġexplore": 2115,
      "Ġ{\\": 2116,
      "aussian": 2117,
      "multi": 2118,
      "Ġ+": 2119,
      "gamma": 2120,
      "ky": 2121,
      "actic": 2122,
      "ogeneous": 2123,
      "Ġscalar": 2124,
      "Ġregions": 2125,
      "ooth": 2126,
      "Ġtransform": 2127,
      "Ġbuil": 2128,
      "Ġbeing": 2129,
      "train": 2130,
      "other": 2131,
      "Ġoften": 2132,
      "hom": 2133,
      "dividual": 2134,
      "lected": 2135,
      "ned": 2136,
      "Ġsimulation": 2137,
      "Ġlanguage": 2138,
      "Ġshe": 2139,
      "Ġdirection": 2140,
      "Ġprof": 2141,
      "Ġyield": 2142,
      "Ġcontinuous": 2143,
      "Ġgenerated": 2144,
      "ries": 2145,
      "Ġcre": 2146,
      "reng": 2147,
      "Ġnan": 2148,
      "Ġexamples": 2149,
      "Ġterm": 2150,
      "comm": 2151,
      "Ġsoft": 2152,
      "herent": 2153,
      "tention": 2154,
      "Ġrelation": 2155,
      "Ġimpact": 2156,
      "Ġfixed": 2157,
      "Ġarbit": 2158,
      "Ġdynamical": 2159,
      "Ġsets": 2160,
      "isms": 2161,
      "Ġcoeff": 2162,
      "Ġfull": 2163,
      "rast": 2164,
      "}^": 2165,
      "Ġexplain": 2166,
      "Ġsensi": 2167,
      "type": 2168,
      "Ġefficiency": 2169,
      "Ġill": 2170,
      "mes": 2171,
      "jor": 2172,
      "Ġsatisf": 2173,
      "Ġmodes": 2174,
      "ription": 2175,
      "Ġmuch": 2176,
      "Ġestimate": 2177,
      "ansion": 2178,
      "ributed": 2179,
      "Ġneg": 2180,
      "Ġcentral": 2181,
      "rees": 2182,
      "iral": 2183,
      "bar": 2184,
      "Ġcharge": 2185,
      "mat": 2186,
      "Ġquark": 2187,
      "Ġrest": 2188,
      "Ġrespon": 2189,
      "zation": 2190,
      "ccess": 2191,
      "Ġleads": 2192,
      "Ġspaces": 2193,
      "log": 2194,
      "Ġarg": 2195,
      "Ġaround": 2196,
      "Ġbre": 2197,
      "enchmark": 2198,
      "Ġpositive": 2199,
      "Ġexample": 2200,
      "II": 2201,
      "Ġoperator": 2202,
      "Ġdependence": 2203,
      "Ġdiscussed": 2204,
      "acy": 2205,
      "Ġgo": 2206,
      "ice": 2207,
      "Ġref": 2208,
      "Ġuncertain": 2209,
      "dec": 2210,
      "ducing": 2211,
      "can": 2212,
      "Ġtun": 2213,
      "ox": 2214,
      "Ġprim": 2215,
      "Ġpers": 2216,
      "ause": 2217,
      "Ġradio": 2218,
      "Ġproof": 2219,
      "dient": 2220,
      "iew": 2221,
      "Ġmeasured": 2222,
      "Ġoperators": 2223,
      "Ġtransfer": 2224,
      "ĠFurthermore": 2225,
      "Ġdefined": 2226,
      "osphe": 2227,
      "oding": 2228,
      "Ġdistributions": 2229,
      "Ġseries": 2230,
      "iform": 2231,
      "Ġtransport": 2232,
      "Ġ7": 2233,
      "igen": 2234,
      "Ġ9": 2235,
      "Ġbackground": 2236,
      "Ġgood": 2237,
      "ute": 2238,
      "Ġdetermine": 2239,
      "Ġcompact": 2240,
      "Ġresulting": 2241,
      "Ġamong": 2242,
      "faces": 2243,
      "Ġautom": 2244,
      "Ġhard": 2245,
      "Ġbest": 2246,
      "reement": 2247,
      "Ġwhose": 2248,
      "spec": 2249,
      "Ġrespect": 2250,
      "iqu": 2251,
      "off": 2252,
      "Ġaverage": 2253,
      "process": 2254,
      "Ġgeneration": 2255,
      "mass": 2256,
      "Ġproduct": 2257,
      "alactic": 2258,
      "oud": 2259,
      "ily": 2260,
      "Ġlarger": 2261,
      "Ġnormal": 2262,
      "plications": 2263,
      "Ġexpected": 2264,
      "Ġtypes": 2265,
      "Ġfluctu": 2266,
      "Ġexplo": 2267,
      "emporal": 2268,
      "isting": 2269,
      "Ġ<": 2270,
      "hip": 2271,
      "Ġtechn": 2272,
      "vey": 2273,
      "Ġless": 2274,
      "Ġequival": 2275,
      "most": 2276,
      "Ġachieve": 2277,
      "omal": 2278,
      "sitions": 2279,
      "ĠWh": 2280,
      "Ġtext": 2281,
      "isot": 2282,
      "abilities": 2283,
      "alle": 2284,
      "Ġmomentum": 2285,
      "spect": 2286,
      "Ġmix": 2287,
      "Ġregime": 2288,
      "Ġstochastic": 2289,
      "11": 2290,
      "vised": 2291,
      "ison": 2292,
      "Ġmachine": 2293,
      "ame": 2294,
      "class": 2295,
      "Ġcomplexity": 2296,
      "ditional": 2297,
      "Ġcomputational": 2298,
      "Ġissu": 2299,
      "oles": 2300,
      "min": 2301,
      "Ġlike": 2302,
      "Ġview": 2303,
      "Ġarchitect": 2304,
      "lements": 2305,
      "num": 2306,
      "irm": 2307,
      "Ġcell": 2308,
      "Ġbeam": 2309,
      "AR": 2310,
      "Ġbinary": 2311,
      "Ġincreasing": 2312,
      "ĠAd": 2313,
      "Ġcollision": 2314,
      "Ġdiag": 2315,
      "ering": 2316,
      "Ġmeas": 2317,
      "Ġestimation": 2318,
      "read": 2319,
      "Ġtrac": 2320,
      "oring": 2321,
      "rength": 2322,
      "Ġsynthe": 2323,
      "Ġafter": 2324,
      "silon": 2325,
      "Ġidentify": 2326,
      "versal": 2327,
      "Ġcalculations": 2328,
      "results": 2329,
      "Ġdisk": 2330,
      "Ġcomponents": 2331,
      "ajor": 2332,
      "Ġprediction": 2333,
      "amiltonian": 2334,
      "Ġenvironment": 2335,
      "Ġbounds": 2336,
      "Ġeither": 2337,
      "ded": 2338,
      "Ġax": 2339,
      "Ġtoward": 2340,
      "experim": 2341,
      "roscopic": 2342,
      "Ġcalled": 2343,
      "volution": 2344,
      "Ġclusters": 2345,
      "Ġdomin": 2346,
      "war": 2347,
      "Ġanalyze": 2348,
      "vex": 2349,
      "\\'": 2350,
      "ometric": 2351,
      "Ġfundamental": 2352,
      "Ġconduct": 2353,
      "Ġinde": 2354,
      "ification": 2355,
      "medi": 2356,
      "15": 2357,
      "sur": 2358,
      "ok": 2359,
      "Ġmasses": 2360,
      "ram": 2361,
      "side": 2362,
      "Ġpub": 2363,
      "band": 2364,
      "inte": 2365,
      "iterature": 2366,
      "Ġlaw": 2367,
      "Ġintroduced": 2368,
      "Ġnecess": 2369,
      "ii": 2370,
      "high": 2371,
      "ermi": 2372,
      "entially": 2373,
      "Ġquality": 2374,
      "rem": 2375,
      "hy": 2376,
      "lation": 2377,
      "ater": 2378,
      "distribution": 2379,
      "Ġmake": 2380,
      "rang": 2381,
      "Ġtheorem": 2382,
      "Ġbroad": 2383,
      "sm": 2384,
      "Ġdynamic": 2385,
      "Ġstability": 2386,
      "stein": 2387,
      "Ġabove": 2388,
      "Ġel": 2389,
      "Ġspecial": 2390,
      "Ġcoupled": 2391,
      "Ġaccount": 2392,
      "Ġcompare": 2393,
      "allel": 2394,
      "hold": 2395,
      "Ġhighly": 2396,
      "Ġapply": 2397,
      "Ġproduction": 2398,
      "Ġevery": 2399,
      "Ġgeneralized": 2400,
      "Ġsequence": 2401,
      "ifically": 2402,
      "mathrm": 2403,
      "though": 2404,
      "Ġmeasurement": 2405,
      "Ġdegree": 2406,
      "Ġlumin": 2407,
      "Ġrates": 2408,
      "Ġcomputation": 2409,
      "jecture": 2410,
      "bound": 2411,
      "Ġcomplete": 2412,
      "Ġion": 2413,
      "cep": 2414,
      "sigma": 2415,
      "Ġdifferential": 2416,
      "ather": 2417,
      "Ġdual": 2418,
      "Ġstrongly": 2419,
      "Ġindividual": 2420,
      "Ġmassive": 2421,
      "Ġresolution": 2422,
      "Ġmaximum": 2423,
      "Ġsamples": 2424,
      "Ġmanifold": 2425,
      "ayers": 2426,
      "Ġuser": 2427,
      "Ġable": 2428,
      "ream": 2429,
      "ule": 2430,
      "point": 2431,
      "Ġupper": 2432,
      "free": 2433,
      "Ġextract": 2434,
      "Ġsufficient": 2435,
      "Ġreveal": 2436,
      "Ġunderstanding": 2437,
      "Ġ--": 2438,
      "Ġarbitrary": 2439,
      "Ġrespectively": 2440,
      "optim": 2441,
      "ume": 2442,
      "structure": 2443,
      "Ġextended": 2444,
      "Ġwide": 2445,
      "Ġtransm": 2446,
      "Ġx": 2447,
      "Ġconfigur": 2448,
      "ativ": 2449,
      "Ġcomponent": 2450,
      "Ġnature": 2451,
      "Ġcompute": 2452,
      "Ġrelative": 2453,
      "Ġbran": 2454,
      "IR": 2455,
      "group": 2456,
      "Ġadditional": 2457,
      "Ġstatistical": 2458,
      "no": 2459,
      "Ġstill": 2460,
      "Ġtheories": 2461,
      "Ġreview": 2462,
      "ticle": 2463,
      "Ġener": 2464,
      "Ġformal": 2465,
      "Ġvi": 2466,
      "Ġexpansion": 2467,
      "ativistic": 2468,
      "Ġextension": 2469,
      "Ġversion": 2470,
      "}_": 2471,
      "Ġcate": 2472,
      "Ġstable": 2473,
      "Ġshould": 2474,
      "Ġpropag": 2475,
      "Ġunit": 2476,
      "Ġcorrection": 2477,
      "arrow": 2478,
      "Ġhere": 2479,
      "Ġgravitational": 2480,
      "shift": 2481,
      "Ġgeometry": 2482,
      "phys": 2483,
      "ason": 2484,
      "Ġconvergence": 2485,
      "pid": 2486,
      "Ġpredictions": 2487,
      "Ġextra": 2488,
      "Ġbenchmark": 2489,
      "Ġhad": 2490,
      "acc": 2491,
      "abor": 2492,
      "Ġemerg": 2493,
      "Ġconstruction": 2494,
      "Ġdel": 2495,
      "ders": 2496,
      "Ġweight": 2497,
      "ft": 2498,
      "Ġentang": 2499,
      "ges": 2500,
      "cer": 2501,
      "pri": 2502,
      "proble": 2503,
      "encies": 2504,
      "Ġlabel": 2505,
      "pe": 2506,
      "ially": 2507,
      "Ġcryst": 2508,
      "Ġwould": 2509,
      "Ġdown": 2510,
      "ĠCh": 2511,
      "Ġcloud": 2512,
      "ĠRe": 2513,
      "Ġsuccess": 2514,
      "Ġmolecular": 2515,
      "range": 2516,
      "Ġgreat": 2517,
      "Ġedge": 2518,
      "tific": 2519,
      "ensive": 2520,
      "veness": 2521,
      "wise": 2522,
      "AS": 2523,
      "Ġevidence": 2524,
      "Ġspeed": 2525,
      "Ġincrease": 2526,
      "Ġreconst": 2527,
      "amily": 2528,
      "avy": 2529,
      "ressure": 2530,
      "Ġsmooth": 2531,
      "Ġpossi": 2532,
      "arc": 2533,
      "Ġbul": 2534,
      "hemical": 2535,
      "Ġacceler": 2536,
      "rit": 2537,
      "ĠWith": 2538,
      "Ġestablish": 2539,
      "Ġclose": 2540,
      "Ġfully": 2541,
      "Ġchange": 2542,
      "Ġ`": 2543,
      "rence": 2544,
      "ropic": 2545,
      "ĠUn": 2546,
      "Ġgravity": 2547,
      "ruc": 2548,
      "urst": 2549,
      "Ġquasi": 2550,
      "den": 2551,
      "beta": 2552,
      "ĠAt": 2553,
      "Ġleading": 2554,
      "lambda": 2555,
      "Ġhydro": 2556,
      "ER": 2557,
      "measure": 2558,
      "general": 2559,
      "Ġvariables": 2560,
      "aries": 2561,
      "local": 2562,
      "gmentation": 2563,
      "Ġdescribed": 2564,
      "Ġmade": 2565,
      "\\\"": 2566,
      "Ġagreement": 2567,
      "graph": 2568,
      "orption": 2569,
      "Ġdiscrete": 2570,
      "Ġcontroll": 2571,
      "rices": 2572,
      "Ġillust": 2573,
      "13": 2574,
      "odel": 2575,
      "Ġentropy": 2576,
      "Ġmode": 2577,
      "ptions": 2578,
      "Ġstrength": 2579,
      "Ġclasses": 2580,
      "Ġplas": 2581,
      "Ġformula": 2582,
      "itable": 2583,
      "ultaneous": 2584,
      "between": 2585,
      "andid": 2586,
      "tition": 2587,
      "Ġintegral": 2588,
      "ired": 2589,
      "ventional": 2590,
      "Ġdimensional": 2591,
      "Ġlik": 2592,
      "Ġelements": 2593,
      "Ġleast": 2594,
      "Ġeigen": 2595,
      "Ġdimensions": 2596,
      "Ġagain": 2597,
      "Ġbos": 2598,
      "Ġscaling": 2599,
      "Ġaccurate": 2600,
      "ograph": 2601,
      ")$,": 2602,
      "ogni": 2603,
      "Ġprior": 2604,
      "two": 2605,
      "ĠOn": 2606,
      "ination": 2607,
      "Ġanomal": 2608,
      "plan": 2609,
      "Ġsuperconduct": 2610,
      "Ġfunctional": 2611,
      "Ġprogram": 2612,
      "Ġscales": 2613,
      "body": 2614,
      "^{\\": 2615,
      "Ġinflu": 2616,
      "Ġwind": 2617,
      "Ġproced": 2618,
      "Ġsolar": 2619,
      "flu": 2620,
      "Ġpredict": 2621,
      "Ġlines": 2622,
      "},": 2623,
      "radi": 2624,
      "Ġlimited": 2625,
      "Ġvisual": 2626,
      "Ġdecre": 2627,
      "comput": 2628,
      "show": 2629,
      "Ġperformed": 2630,
      "Ġcho": 2631,
      "Ġestimates": 2632,
      "sigh": 2633,
      "data": 2634,
      "Ġprinci": 2635,
      "Ġmed": 2636,
      "Ġchanges": 2637,
      "ternal": 2638,
      "IS": 2639,
      "Ġadv": 2640,
      "icients": 2641,
      "ĠComp": 2642,
      "Ġinvestigated": 2643,
      "frac": 2644,
      "50": 2645,
      "Ġdetermined": 2646,
      "pling": 2647,
      "ins": 2648,
      "inal": 2649,
      "Ġcore": 2650,
      "seud": 2651,
      "ĠThere": 2652,
      "Ġaltern": 2653,
      "Ġrepresentations": 2654,
      "Ġmodeling": 2655,
      "get": 2656,
      "Ġattack": 2657,
      "electron": 2658,
      "wave": 2659,
      "represent": 2660,
      "iggs": 2661,
      "Ġpuls": 2662,
      "algorith": 2663,
      "ify": 2664,
      "ides": 2665,
      "Ġpopulation": 2666,
      "phot": 2667,
      "pir": 2668,
      "rates": 2669,
      "mic": 2670,
      "change": 2671,
      "Ġ$(": 2672,
      "Ġgrowth": 2673,
      "Ġliterature": 2674,
      "Ġrelevant": 2675,
      "symmetric": 2676,
      "Ġmedi": 2677,
      "bi": 2678,
      "Ġmes": 2679,
      "corpor": 2680,
      "world": 2681,
      "Ġdiffusion": 2682,
      "flow": 2683,
      "Ġexpression": 2684,
      "Ġdevices": 2685,
      "reshold": 2686,
      "Ġsubst": 2687,
      "Ġdescription": 2688,
      "Ġsymmetric": 2689,
      "ressed": 2690,
      "Ġyears": 2691,
      "Ġshape": 2692,
      "Ġoutperform": 2693,
      "normal": 2694,
      "Ġevents": 2695,
      "Ġferm": 2696,
      "ĠWhile": 2697,
      "ience": 2698,
      "Ġrun": 2699,
      "Ġusers": 2700,
      "DE": 2701,
      "Ġtr": 2702,
      "Ġneutron": 2703,
      "Ġneutrino": 2704,
      "Ġfac": 2705,
      "Ġtor": 2706,
      "vial": 2707,
      "Ġproperty": 2708,
      "nu": 2709,
      "Delta": 2710,
      "14": 2711,
      "Ġanalog": 2712,
      "clusion": 2713,
      "Ġult": 2714,
      "Ġlayer": 2715,
      "Ġinvariant": 2716,
      "Ġresponse": 2717,
      "000": 2718,
      "elesc": 2719,
      "Ġfast": 2720,
      "ensing": 2721,
      "Ġquestion": 2722,
      "proper": 2723,
      "Ġpeak": 2724,
      "tra": 2725,
      "Ġsit": 2726,
      "^+": 2727,
      "aving": 2728,
      "Ġappear": 2729,
      "Ġinduced": 2730,
      "Ġenhance": 2731,
      "Ġradiation": 2732,
      "uble": 2733,
      "fined": 2734,
      "Ġscenarios": 2735,
      "Ġclosed": 2736,
      "Ġmicro": 2737,
      "ored": 2738,
      "des": 2739,
      "Ġ($": 2740,
      "Ġcharg": 2741,
      "brid": 2742,
      "well": 2743,
      "16": 2744,
      "roscopy": 2745,
      "Ġsystematic": 2746,
      "fact": 2747,
      "Ġevaluate": 2748,
      "Ġ19": 2749,
      "network": 2750,
      "$)": 2751,
      "inc": 2752,
      "Ġmaps": 2753,
      "Ġmeans": 2754,
      "led": 2755,
      "ĠGaussian": 2756,
      "Ġgenerate": 2757,
      "Ġfamily": 2758,
      "mega": 2759,
      "ply": 2760,
      "Ġdirectly": 2761,
      "Ġdevelopment": 2762,
      "Ġattention": 2763,
      "eep": 2764,
      "ised": 2765,
      "Ġmaterials": 2766,
      "nov": 2767,
      "Ġrequired": 2768,
      "Ġnam": 2769,
      "Ġbasis": 2770,
      "lat": 2771,
      "ĠSch": 2772,
      "Ġasymptotic": 2773,
      "Ġpreviously": 2774,
      "ior": 2775,
      "Ġaccre": 2776,
      "atory": 2777,
      "Ġcomputing": 2778,
      "Ġprovided": 2779,
      ")$.": 2780,
      "sw": 2781,
      "^-": 2782,
      "iquid": 2783,
      "infty": 2784,
      "ho": 2785,
      "ĠHamiltonian": 2786,
      "different": 2787,
      "Ġpost": 2788,
      "Ġfar": 2789,
      "antif": 2790,
      "As": 2791,
      "algeb": 2792,
      "character": 2793,
      "Ġreduction": 2794,
      "Ġwaves": 2795,
      "Ġstrategy": 2796,
      "Ġtensor": 2797,
      "ĠCo": 2798,
      "Ġseman": 2799,
      "Ġdust": 2800,
      ")\\": 2801,
      "frared": 2802,
      "Ġfluctuations": 2803,
      "urity": 2804,
      "hema": 2805,
      "temperature": 2806,
      "gan": 2807,
      "Ġess": 2808,
      "Ġconfirm": 2809,
      "Ġresour": 2810,
      "FT": 2811,
      "Ġdouble": 2812,
      "pr": 2813,
      "ectiveness": 2814,
      "ocol": 2815,
      "Ġcommunication": 2816,
      "Ġsolve": 2817,
      "Ġevaluation": 2818,
      "Ġact": 2819,
      "Ġvide": 2820,
      "Hz": 2821,
      "Ġemploy": 2822,
      "Ġcontrast": 2823,
      "Ġbecause": 2824,
      "AM": 2825,
      "quantum": 2826,
      "Ġphoton": 2827,
      "Ġconjecture": 2828,
      "Ġunderlying": 2829,
      "agneti": 2830,
      "ighb": 2831,
      "particle": 2832,
      "Ġplane": 2833,
      "Ġgradient": 2834,
      "Ġmajor": 2835,
      "Ġvariety": 2836,
      "ead": 2837,
      "Ġnuclear": 2838,
      "ium": 2839,
      "Ġrot": 2840,
      "Ġsqu": 2841,
      "correl": 2842,
      "Ġquad": 2843,
      "ductivity": 2844,
      "Ġdiffic": 2845,
      "Ġindex": 2846,
      "Ġcosmological": 2847,
      "Ġreduced": 2848,
      "Ġanisot": 2849,
      "Ġuniform": 2850,
      "pth": 2851,
      "Ġtur": 2852,
      "Ġcorrect": 2853,
      "phi": 2854,
      "ierarch": 2855,
      "Ġevent": 2856,
      "Ġrequires": 2857,
      "vature": 2858,
      "Ġenti": 2859,
      "Ġed": 2860,
      "Ġachieved": 2861,
      "Ġir": 2862,
      "Ġconcept": 2863,
      "electric": 2864,
      "acting": 2865,
      "formal": 2866,
      "enge": 2867,
      "Ġangular": 2868,
      "olved": 2869,
      "Ġelement": 2870,
      "IC": 2871,
      "otic": 2872,
      "conn": 2873,
      "Ġmagnitude": 2874,
      "Ġfluid": 2875,
      "Ġuseful": 2876,
      "Ġenergies": 2877,
      "tun": 2878,
      "ocial": 2879,
      "Ġstring": 2880,
      "ections": 2881,
      "Ġlearn": 2882,
      "oriz": 2883,
      "Ġactive": 2884,
      "Ġarticle": 2885,
      "Ġfactors": 2886,
      "Ġmemory": 2887,
      "Ġcandid": 2888,
      "PS": 2889,
      "Ġbounded": 2890,
      "17": 2891,
      "predic": 2892,
      "learning": 2893,
      "using": 2894,
      "acu": 2895,
      "Ġinclude": 2896,
      "Ġagainst": 2897,
      "ĠNe": 2898,
      "Ġcannot": 2899,
      "models": 2900,
      "Ġpolic": 2901,
      "Ġnumbers": 2902,
      "Net": 2903,
      "ĠMon": 2904,
      "performance": 2905,
      "ises": 2906,
      "go": 2907,
      "ernel": 2908,
      "Ġphases": 2909,
      "Ġpairs": 2910,
      "Ġcomparison": 2911,
      "Ġast": 2912,
      "ition": 2913,
      "velength": 2914,
      "demonst": 2915,
      "Ġchallenges": 2916,
      "Ġoutput": 2917,
      "Ġwhether": 2918,
      "ĠPro": 2919,
      "Ġheavy": 2920,
      "ery": 2921,
      "Ġcorrelations": 2922,
      "Ġcalculate": 2923,
      "Ġpolarization": 2924,
      "eline": 2925,
      "Ġinfinite": 2926,
      "Ġelectronic": 2927,
      "Ġelectro": 2928,
      "emperatures": 2929,
      "rins": 2930,
      "Ġreason": 2931,
      "tt": 2932,
      "Ġdecision": 2933,
      "inct": 2934,
      "arse": 2935,
      "Ġpressure": 2936,
      "observ": 2937,
      "warf": 2938,
      "yond": 2939,
      "ĠModel": 2940,
      "Ġtowards": 2941,
      "Ġdecomp": 2942,
      "ered": 2943,
      "aser": 2944,
      "ĠCar": 2945,
      "18": 2946,
      "actions": 2947,
      "Ġunique": 2948,
      "Ġbulk": 2949,
      "polar": 2950,
      "ĠSp": 2951,
      "Ġscenario": 2952,
      "Ġdetected": 2953,
      "AN": 2954,
      "}_{": 2955,
      "ming": 2956,
      "Ġloop": 2957,
      "Ġminimal": 2958,
      "Ġiter": 2959,
      "nal": 2960,
      "arily": 2961,
      "Ġchallenging": 2962,
      "Ġsl": 2963,
      "ologies": 2964,
      "Ġexternal": 2965,
      "disc": 2966,
      "Ġtw": 2967,
      "approxim": 2968,
      "asy": 2969,
      "Ġderiv": 2970,
      "}{": 2971,
      "Ġelectric": 2972,
      "fully": 2973,
      "use": 2974,
      "dens": 2975,
      "plies": 2976,
      "estim": 2977,
      "cell": 2978,
      "Ġeng": 2979,
      "uli": 2980,
      "Ġprocessing": 2981,
      "Ġparallel": 2982,
      "allic": 2983,
      "ĠCO": 2984,
      "PT": 2985,
      "Ġrepro": 2986,
      "air": 2987,
      "ording": 2988,
      "theore": 2989,
      "Ġmust": 2990,
      "dri": 2991,
      "information": 2992,
      "Ġgeometric": 2993,
      "Ġpure": 2994,
      "ordin": 2995,
      "Ġconsequ": 2996,
      "cei": 2997,
      "ĠHiggs": 2998,
      "Ġcalculated": 2999,
      "ined": 3000,
      "solution": 3001,
      "Ġgives": 3002,
      "let": 3003,
      "ights": 3004,
      "version": 3005,
      "Ġassess": 3006,
      "leq": 3007,
      "Ġpatterns": 3008,
      "frequ": 3009,
      "olation": 3010,
      "jection": 3011,
      "variance": 3012,
      "Ġselection": 3013,
      "Ġposition": 3014,
      "Omega": 3015,
      "Ġcoefficients": 3016,
      "Ġequilibrium": 3017,
      "Ġrelationship": 3018,
      "pecially": 3019,
      "ĠDi": 3020,
      "DM": 3021,
      "Ġasymmet": 3022,
      "overy": 3023,
      "systems": 3024,
      "izations": 3025,
      "itt": 3026,
      "Ġinference": 3027,
      "mediate": 3028,
      "Ġdisper": 3029,
      "ĠThen": 3030,
      "Ġtreat": 3031,
      "Ġempir": 3032,
      "Ġdistributed": 3033,
      "Ġfeed": 3034,
      "Ġimproved": 3035,
      "Ġreduce": 3036,
      "Ġbecom": 3037,
      "Ġuses": 3038,
      "Ġoriginal": 3039,
      "onom": 3040,
      "Ġbelow": 3041,
      "Ġradius": 3042,
      "Ġlimits": 3043,
      "Ġcapture": 3044,
      "rucial": 3045,
      "Ġcurves": 3046,
      "Ġdesigned": 3047,
      "Ġarea": 3048,
      "eman": 3049,
      "Ġhowever": 3050,
      "Ġdra": 3051,
      "ulating": 3052,
      "$_{": 3053,
      "Ġimaging": 3054,
      "Ġadvant": 3055,
      "GN": 3056,
      "hood": 3057,
      "consi": 3058,
      "isation": 3059,
      "ognition": 3060,
      "Ġluminosity": 3061,
      "Ġbecome": 3062,
      "ading": 3063,
      "mer": 3064,
      "Ġabund": 3065,
      "Ġ200": 3066,
      "Ġfit": 3067,
      "Ġvariable": 3068,
      "play": 3069,
      "ife": 3070,
      "Ġrelax": 3071,
      "oder": 3072,
      "reen": 3073,
      "parameter": 3074,
      "where": 3075,
      "Ġpropos": 3076,
      "Ġnegative": 3077,
      "mb": 3078,
      "CS": 3079,
      "Ġsignals": 3080,
      "Ġprocedure": 3081,
      "Ġsimultaneous": 3082,
      "Ġsmaller": 3083,
      "Ġrotation": 3084,
      "Ġdifference": 3085,
      "ensities": 3086,
      "Ġearly": 3087,
      "rical": 3088,
      "IM": 3089,
      "mosphe": 3090,
      "Ġcarri": 3091,
      "Ġnecessary": 3092,
      "Ġsurvey": 3093,
      "Ġincorpor": 3094,
      "Ġforce": 3095,
      "phase": 3096,
      "Ġexper": 3097,
      "limit": 3098,
      "Ġrestric": 3099,
      "ometry": 3100,
      "xt": 3101,
      "ler": 3102,
      "ĠGeV": 3103,
      "Ġjoint": 3104,
      "these": 3105,
      "ypot": 3106,
      "Ġgeneralization": 3107,
      "ante": 3108,
      "sour": 3109,
      "Ġ>": 3110,
      "Ġtemporal": 3111,
      "Ġprotocol": 3112,
      "bran": 3113,
      "continu": 3114,
      "Ġthreshold": 3115,
      "berg": 3116,
      "Ġchemical": 3117,
      "Ġspl": 3118,
      "rating": 3119,
      "Ġpractical": 3120,
      "rehen": 3121,
      "ayes": 3122,
      "Ġrapid": 3123,
      "ital": 3124,
      "Ġasp": 3125,
      "instein": 3126,
      "Ġhelp": 3127,
      "Ġarchitecture": 3128,
      "Ġalmost": 3129,
      "Ġdetailed": 3130,
      "ĠQCD": 3131,
      "Ġbeyond": 3132,
      "theory": 3133,
      "Ġmis": 3134,
      "rt": 3135,
      "tech": 3136,
      "GC": 3137,
      "Ġcounter": 3138,
      "Ġplanet": 3139,
      "Ġnodes": 3140,
      "Ġdepends": 3141,
      "Ġuncertainty": 3142,
      "Ġmedium": 3143,
      "ĠWhen": 3144,
      "itter": 3145,
      "Ġamplitude": 3146,
      "Ġcosmic": 3147,
      "zing": 3148,
      "Ġconvex": 3149,
      "Ġmeasures": 3150,
      "arante": 3151,
      "determ": 3152,
      "Ġvolume": 3153,
      "Ġreli": 3154,
      "Ġwhat": 3155,
      "Ġpresents": 3156,
      "Ġsuitable": 3157,
      "Ġpartial": 3158,
      "Ġflat": 3159,
      "Ġsimpl": 3160,
      "Ġequivalent": 3161,
      "Ġtrained": 3162,
      "icon": 3163,
      "Ġdomains": 3164,
      "supervised": 3165,
      "functions": 3166,
      "Ġconnected": 3167,
      "Ġfail": 3168,
      "Ġlevels": 3169,
      "Ġmatrices": 3170,
      "Ġsince": 3171,
      "Ġperiodic": 3172,
      "odynam": 3173,
      "ient": 3174,
      "tau": 3175,
      "Ġsingular": 3176,
      "Ġheat": 3177,
      "constrain": 3178,
      "aken": 3179,
      "top": 3180,
      "orizon": 3181,
      "Ġpublic": 3182,
      "ĠFe": 3183,
      "rinsic": 3184,
      "Ġchiral": 3185,
      "have": 3186,
      "iven": 3187,
      "gl": 3188,
      "Ġentanglement": 3189,
      "Ġdefine": 3190,
      "Ġlatter": 3191,
      "reed": 3192,
      "Ġpseud": 3193,
      "Ġtransitions": 3194,
      "real": 3195,
      "Ġinsigh": 3196,
      "also": 3197,
      "pecifically": 3198,
      "Ġproduce": 3199,
      "SO": 3200,
      "200": 3201,
      "Ġhold": 3202,
      "ĠSuch": 3203,
      "acuum": 3204,
      "pole": 3205,
      "Ġsemi": 3206,
      "Ġpredicted": 3207,
      "MC": 3208,
      "Ġfindings": 3209,
      "Ġsat": 3210,
      "density": 3211,
      "Ġworks": 3212,
      "CO": 3213,
      "enef": 3214,
      "Ġsw": 3215,
      "ibility": 3216,
      "Ġdemonstrated": 3217,
      "Ġheter": 3218,
      "Ġbias": 3219,
      "Ġanalytical": 3220,
      "Ġminimum": 3221,
      "ways": 3222,
      "pc": 3223,
      "Ġaccretion": 3224,
      "armonic": 3225,
      "spin": 3226,
      "erical": 3227,
      "way": 3228,
      "Ġatomic": 3229,
      "stellar": 3230,
      "sam": 3231,
      "iv": 3232,
      "elescope": 3233,
      "ĠMonte": 3234,
      "approach": 3235,
      "Ġtru": 3236,
      "arities": 3237,
      "analy": 3238,
      "Ġliquid": 3239,
      "mon": 3240,
      "cap": 3241,
      "Ġalign": 3242,
      "Ġslow": 3243,
      "sk": 3244,
      "obtain": 3245,
      "Ġholes": 3246,
      "Ġmagnet": 3247,
      "sis": 3248,
      "acity": 3249,
      "''": 3250,
      "integ": 3251,
      "Ġsocial": 3252,
      "Ġeffectiveness": 3253,
      "pite": 3254,
      "Ġincreases": 3255,
      "resolution": 3256,
      "Ġfilter": 3257,
      "Ġobservation": 3258,
      "coupl": 3259,
      "Ġclos": 3260,
      "conf": 3261,
      "Ġability": 3262,
      "Ġexploit": 3263,
      "AT": 3264,
      "Fe": 3265,
      "Ġpur": 3266,
      "sip": 3267,
      "Lambda": 3268,
      "igma": 3269,
      "isk": 3270,
      "Ġproduced": 3271,
      "such": 3272,
      "Ġcrucial": 3273,
      "Ġtools": 3274,
      "Ġcombination": 3275,
      "HC": 3276,
      "Ġshar": 3277,
      "trivial": 3278,
      "geq": 3279,
      "Ġword": 3280,
      "}^{": 3281,
      "Ġdetector": 3282,
      "ifts": 3283,
      "Ġvor": 3284,
      "ĠRes": 3285,
      "ott": 3286,
      "Ġproject": 3287,
      "Ġkernel": 3288,
      "Ġenables": 3289,
      "clude": 3290,
      "Ġcurvature": 3291,
      "Ġredshift": 3292,
      "Ġpriv": 3293,
      "}=": 3294,
      "Ġabsorption": 3295,
      "ditionally": 3296,
      "served": 3297,
      "ingu": 3298,
      "ash": 3299,
      "Ġfinal": 3300,
      "consistent": 3301,
      "Ġatoms": 3302,
      "Ġinfluence": 3303,
      "llip": 3304,
      "Ġsurfaces": 3305,
      "Ġsupp": 3306,
      "Ġrather": 3307,
      "Ġalgebras": 3308,
      "ĠRec": 3309,
      "Ġchallenge": 3310,
      "^\\": 3311,
      "section": 3312,
      "Ġangle": 3313,
      "Ġmark": 3314,
      "Ġremains": 3315,
      "ĠPo": 3316,
      "properties": 3317,
      "Ġclear": 3318,
      "Ġobserve": 3319,
      "Ġinequ": 3320,
      "arying": 3321,
      "Ġconventional": 3322,
      "Ġturb": 3323,
      "Ġones": 3324,
      "Ġidentified": 3325,
      "Ġtraject": 3326,
      "calc": 3327,
      "Ġhierarch": 3328,
      "ck": 3329,
      "Ġsampling": 3330,
      "ĠFermi": 3331,
      "versari": 3332,
      "Ġcollisions": 3333,
      "30": 3334,
      "Ġcharacteristics": 3335,
      "Ġconcer": 3336,
      "atform": 3337,
      "Ġimplementation": 3338,
      "Ġfine": 3339,
      "Ġvan": 3340,
      "Ġbehaviour": 3341,
      "Ġtemperatures": 3342,
      "place": 3343,
      "Ġmaking": 3344,
      "desc": 3345,
      "Ġcombined": 3346,
      "Ġorbital": 3347,
      "Ġdwarf": 3348,
      "Ġschemes": 3349,
      "Ġdistinct": 3350,
      "cy": 3351,
      "bly": 3352,
      "Ġellip": 3353,
      "Ġins": 3354,
      "dynamics": 3355,
      "Ġpromising": 3356,
      "aut": 3357,
      "Ġerrors": 3358,
      "Ġring": 3359,
      "Ġdepth": 3360,
      "avor": 3361,
      "ches": 3362,
      "rob": 3363,
      "af": 3364,
      "Ġfore": 3365,
      "Ġlayers": 3366,
      "Ġgamma": 3367,
      "Ġhost": 3368,
      "Ġcodes": 3369,
      "problem": 3370,
      "ĠSN": 3371,
      "Ġremain": 3372,
      "RB": 3373,
      "Ġlaser": 3374,
      "Ġresonance": 3375,
      "itudes": 3376,
      "Ġadop": 3377,
      "Ġstructural": 3378,
      "Ġ${\\": 3379,
      "phene": 3380,
      "ĠIf": 3381,
      "Ġplasma": 3382,
      "Ġplay": 3383,
      "Ġlack": 3384,
      "Ġmechanisms": 3385,
      "Ġcurve": 3386,
      "Ġhybrid": 3387,
      "Ġconcent": 3388,
      "imet": 3389,
      "Ġmixing": 3390,
      "efficient": 3391,
      "significant": 3392,
      "Ġsubject": 3393,
      "Ġmakes": 3394,
      "Ġuniversal": 3395,
      "Ġconstructed": 3396,
      "..": 3397,
      "potential": 3398,
      "Ġhist": 3399,
      "Ġblock": 3400,
      "Ġachieves": 3401,
      "Ġfollowing": 3402,
      "magnetic": 3403,
      "\\%": 3404,
      "Ġsk": 3405,
      "//": 3406,
      "Ġelectrons": 3407,
      "ull": 3408,
      "tivated": 3409,
      "force": 3410,
      "Ġbright": 3411,
      "Ġindicate": 3412,
      "pose": 3413,
      "sol": 3414,
      "ird": 3415,
      ")=": 3416,
      "Ġyet": 3417,
      "Ġcontent": 3418,
      "Ġsoftware": 3419,
      "rho": 3420,
      "ratic": 3421,
      "ild": 3422,
      "MA": 3423,
      "versarial": 3424,
      "ematic": 3425,
      "ector": 3426,
      "app": 3427,
      "ef": 3428,
      "Ġmathema": 3429,
      "epsilon": 3430,
      "Ġquantif": 3431,
      "Ġmetal": 3432,
      "Ġadj": 3433,
      "qrt": 3434,
      "hys": 3435,
      "Ġaccess": 3436,
      "Ġmoder": 3437,
      "gory": 3438,
      "driven": 3439,
      "Ġespecially": 3440,
      "Ġjet": 3441,
      "perturb": 3442,
      "ĠFirst": 3443,
      "priate": 3444,
      "orbit": 3445,
      "LMs": 3446,
      "Ġgoal": 3447,
      "://": 3448,
      "fect": 3449,
      "aster": 3450,
      "nian": 3451,
      "Ġworld": 3452,
      "Ġturbul": 3453,
      "atal": 3454,
      "called": 3455,
      "ID": 3456,
      "OS": 3457,
      "Ġforms": 3458,
      "Ġcoherent": 3459,
      "Ġpreser": 3460,
      "ores": 3461,
      "proposed": 3462,
      "Ġcr": 3463,
      "ĠCarlo": 3464,
      "Ġsegmentation": 3465,
      "gether": 3466,
      "Ġtogether": 3467,
      "iles": 3468,
      "Ġinverse": 3469,
      "parameters": 3470,
      "Ġbecomes": 3471,
      "wid": 3472,
      "Ġcondens": 3473,
      "physical": 3474,
      "Ġproviding": 3475,
      "ayesian": 3476,
      "Ġsolving": 3477,
      "Ġsensitivity": 3478,
      "clust": 3479,
      "Ġbo": 3480,
      "Ġchain": 3481,
      "Ġlink": 3482,
      "Ġprecision": 3483,
      "Ġtree": 3484,
      "herence": 3485,
      "ES": 3486,
      "frequency": 3487,
      "Ġalgebraic": 3488,
      "Ġregard": 3489,
      "zero": 3490,
      "come": 3491,
      "analysis": 3492,
      "Ġvideo": 3493,
      "training": 3494,
      "hic": 3495,
      "PC": 3496,
      "omega": 3497,
      "Ġcorrections": 3498,
      "MS": 3499,
      "Ġshowing": 3500,
      "Ġrank": 3501,
      "ĠII": 3502,
      "Ġtransmission": 3503,
      "tively": 3504,
      "Ġwidely": 3505,
      "complex": 3506,
      "Ġwidth": 3507,
      "Ġquas": 3508,
      "greg": 3509,
      "ationary": 3510,
      "Ġnotion": 3511,
      "Ġfer": 3512,
      "omorphic": 3513,
      "itz": 3514,
      "Ġdem": 3515,
      "Ġultra": 3516,
      "Ġlikely": 3517,
      "ont": 3518,
      "symmetry": 3519,
      "Ġcontains": 3520,
      "Ġmetrics": 3521,
      "Ġtake": 3522,
      "rient": 3523,
      "Ġprinciple": 3524,
      "values": 3525,
      "any": 3526,
      "Ġrelativistic": 3527,
      "investig": 3528,
      "25": 3529,
      "Ġfeedback": 3530,
      "Ġanti": 3531,
      "Ġseen": 3532,
      "Ġchannels": 3533,
      "Ġradial": 3534,
      "ypothes": 3535,
      "Ġstrategies": 3536,
      "Ġquantit": 3537,
      "Ġguarante": 3538,
      "onical": 3539,
      "Ġthin": 3540,
      "bl": 3541,
      "Ġexists": 3542,
      "Ġansw": 3543,
      "Ġfinding": 3544,
      "Ġformulation": 3545,
      "/\\": 3546,
      "Ġreconstruction": 3547,
      "Ġonline": 3548,
      "Ġpack": 3549,
      "Rec": 3550,
      "Ġanalys": 3551,
      "induced": 3552,
      "Ġcycl": 3553,
      "ishing": 3554,
      "Ġvacuum": 3555,
      "ĠBased": 3556,
      "bert": 3557,
      "rans": 3558,
      "Ġmerg": 3559,
      "Ġdegrees": 3560,
      "Ġupon": 3561,
      "Ġinteresting": 3562,
      "Ġthermodynam": 3563,
      "ĠExperim": 3564,
      "Ġformalism": 3565,
      "Ġqubit": 3566,
      "Ġdispersion": 3567,
      "particular": 3568,
      "nucle": 3569,
      "Ġagents": 3570,
      "Ġsemantic": 3571,
      "nova": 3572,
      "Ġimportance": 3573,
      "Ġrig": 3574,
      "Ġstatic": 3575,
      "ĠOne": 3576,
      "Ġcontributions": 3577,
      "Ġbenef": 3578,
      "large": 3579,
      "correspond": 3580,
      "ument": 3581,
      "Ġautomatic": 3582,
      "Ġexplicitly": 3583,
      "Ġsitu": 3584,
      "Ġdriven": 3585,
      "omm": 3586,
      "ĠLie": 3587,
      "Ġtypical": 3588,
      "specific": 3589,
      "stable": 3590,
      "Ġstatistics": 3591,
      "Ġcover": 3592,
      "Ġreported": 3593,
      "Ġsumm": 3594,
      "Ġcool": 3595,
      "NNs": 3596,
      "Ġoutperforms": 3597,
      "sqrt": 3598,
      "Ġensem": 3599,
      "Ġbasic": 3600,
      "urally": 3601,
      "develop": 3602,
      "Ġamount": 3603,
      "lective": 3604,
      "Ġadm": 3605,
      "Ġatmosphe": 3606,
      "})$": 3607,
      "^*": 3608,
      "alth": 3609,
      "Ġhalo": 3610,
      "Ġconnection": 3611,
      "Ġupd": 3612,
      "Ġneighb": 3613,
      "alities": 3614,
      "delta": 3615,
      "oll": 3616,
      "Ġactivity": 3617,
      "oration": 3618,
      "Ġcontact": 3619,
      "Ġexchange": 3620,
      "Ġengine": 3621,
      "ans": 3622,
      "Ġhadron": 3623,
      "Ġreach": 3624,
      "fraction": 3625,
      "Ġcoordin": 3626,
      "Ġhaving": 3627,
      "ceed": 3628,
      "Ġalternative": 3629,
      "Ġgain": 3630,
      "Ġ100": 3631,
      "ferred": 3632,
      "Ġbar": 3633,
      "Ġtraditional": 3634,
      "contro": 3635,
      "Ġyields": 3636,
      "Ġessential": 3637,
      "Ġtherefore": 3638,
      "Ġanalytic": 3639,
      "Ġte": 3640,
      "Ġorient": 3641,
      "ulator": 3642,
      "Ġempirical": 3643,
      "Ġdense": 3644,
      "Ġsuggests": 3645,
      "current": 3646,
      "igu": 3647,
      "Ġperturbation": 3648,
      "their": 3649,
      "mal": 3650,
      "Ġanalyzed": 3651,
      "vent": 3652,
      "Ġpopular": 3653,
      "Ġpossibility": 3654,
      "Ġmodified": 3655,
      "Ġens": 3656,
      "inetic": 3657,
      "Ġprog": 3658,
      "ini": 3659,
      "Ġmight": 3660,
      "plication": 3661,
      "Ġcalculation": 3662,
      "Ġtaken": 3663,
      "Gamma": 3664,
      "ĠSpecifically": 3665,
      "Ġcontinuum": 3666,
      "40": 3667,
      "ds": 3668,
      "SM": 3669,
      "dual": 3670,
      "states": 3671,
      "term": 3672,
      "He": 3673,
      "Ġhalf": 3674,
      "Ġcomputer": 3675,
      "Ġplatform": 3676,
      "number": 3677,
      "Ġequal": 3678,
      "ĠSU": 3679,
      "Ġexamine": 3680,
      "ging": 3681,
      "ugment": 3682,
      "Ġnamely": 3683,
      "ttps": 3684,
      "ED": 3685,
      "chron": 3686,
      "mo": 3687,
      "irt": 3688,
      "eli": 3689,
      "pres": 3690,
      "independent": 3691,
      "Ġestimated": 3692,
      "Ġissue": 3693,
      "rot": 3694,
      "Ġapproximate": 3695,
      "Ġanother": 3696,
      "Ġavoid": 3697,
      "loop": 3698,
      "Ġassumptions": 3699,
      ")-": 3700,
      "period": 3701,
      "Ġillustrate": 3702,
      "regular": 3703,
      "Ġmetallic": 3704,
      "Ġincludes": 3705,
      "quark": 3706,
      "Ġrobustness": 3707,
      "Ġrecognition": 3708,
      "Ġpattern": 3709,
      "Ġcircu": 3710,
      "Ġconvolution": 3711,
      "Ġcomprehen": 3712,
      "Ġrealistic": 3713,
      "Ġcenter": 3714,
      "diff": 3715,
      "Ġdevi": 3716,
      "atch": 3717,
      "Ġpropagation": 3718,
      "22": 3719,
      "Ġcal": 3720,
      "yl": 3721,
      "Ġproved": 3722,
      "width": 3723,
      "AC": 3724,
      "ands": 3725,
      "Ps": 3726,
      "Ġvariation": 3727,
      "ĠMark": 3728,
      "avity": 3729,
      "adi": 3730,
      "}.": 3731,
      "Ġisot": 3732,
      "Ġmagneti": 3733,
      "lier": 3734,
      "poly": 3735,
      "bon": 3736,
      "Ġgeneric": 3737,
      "Ġcharged": 3738,
      "Ġinterface": 3739,
      "Ġpr": 3740,
      "incre": 3741,
      "standing": 3742,
      "vehic": 3743,
      "gu": 3744,
      "Ġphenomena": 3745,
      "impro": 3746,
      "Ġissues": 3747,
      "vide": 3748,
      "Ġsense": 3749,
      "Ġcharacterize": 3750,
      "Ġeffectively": 3751,
      "ĠDirac": 3752,
      "Ġden": 3753,
      "ception": 3754,
      "algorithm": 3755,
      "algebra": 3756,
      "generate": 3757,
      "compon": 3758,
      "Ġinvolving": 3759,
      "Ġclustering": 3760,
      "Ġbefore": 3761,
      "expl": 3762,
      "ĠSim": 3763,
      "ancy": 3764,
      "star": 3765,
      "Ġassumption": 3766,
      "includ": 3767,
      "Ġsuperconducting": 3768,
      "ilit": 3769,
      "intro": 3770,
      "ieman": 3771,
      "trained": 3772,
      "Ġenhanced": 3773,
      "ativity": 3774,
      "Ġinterval": 3775,
      "Ġextrem": 3776,
      "Ġgenerating": 3777,
      "layer": 3778,
      "Ġvariations": 3779,
      "Ġlife": 3780,
      "ĠCP": 3781,
      "Ġdifferences": 3782,
      "value": 3783,
      "Ġauth": 3784,
      "Ġtransverse": 3785,
      "isted": 3786,
      "vice": 3787,
      "âĢ": 3788,
      "Ġcategor": 3789,
      "Ġdecays": 3790,
      "circ": 3791,
      "Ġinner": 3792,
      "Ġpolicy": 3793,
      "thog": 3794,
      "ump": 3795,
      "Ġentire": 3796,
      "Ġcharacterized": 3797,
      "Ġflows": 3798,
      "plac": 3799,
      "ote": 3800,
      "Ġconsists": 3801,
      "Ġenvironments": 3802,
      "Ġprofile": 3803,
      "Ġdiagram": 3804,
      "Ġgen": 3805,
      "lap": 3806,
      "istency": 3807,
      "Ġmixed": 3808,
      "arith": 3809,
      "Ġsequences": 3810,
      "Ġorders": 3811,
      "Ġconstraint": 3812,
      "Ġextensive": 3813,
      "Let": 3814,
      "identif": 3815,
      "Ġru": 3816,
      "Ġintrinsic": 3817,
      "Ġgraphene": 3818,
      "Ġshift": 3819,
      "ocks": 3820,
      "Ġbary": 3821,
      "ensors": 3822,
      "mechan": 3823,
      "Ġestablished": 3824,
      "Ġconsidering": 3825,
      "pton": 3826,
      "Ġefficiently": 3827,
      "equilibrium": 3828,
      "Ġcomputed": 3829,
      "through": 3830,
      "Ġfive": 3831,
      "theta": 3832,
      "wa": 3833,
      "isy": 3834,
      "Ġinteracting": 3835,
      "classif": 3836,
      "Ġsensitive": 3837,
      "ffor": 3838,
      "Ġbreak": 3839,
      "reedom": 3840,
      "Ġintermediate": 3841,
      "hal": 3842,
      "direct": 3843,
      "Ġexponential": 3844,
      "allow": 3845,
      "Ġspati": 3846,
      "Ġmorph": 3847,
      "ret": 3848,
      "Ġhorizon": 3849,
      "Ġflex": 3850,
      "angle": 3851,
      "Ġconfiguration": 3852,
      "alit": 3853,
      "herical": 3854,
      "ĠLa": 3855,
      "Ġobjective": 3856,
      "econd": 3857,
      "osc": 3858,
      "ids": 3859,
      "methods": 3860,
      "neut": 3861,
      "used": 3862,
      "Ġdependent": 3863,
      "comple": 3864,
      "ribute": 3865,
      "Ġinternal": 3866,
      "Ġsparse": 3867,
      "Ġexperimentally": 3868,
      "ien": 3869,
      "ĠThus": 3870,
      "agnos": 3871,
      "ĠBayesian": 3872,
      "att": 3873,
      "Ġrise": 3874,
      "St": 3875,
      "Ġdifficult": 3876,
      "ken": 3877,
      "Ġprobe": 3878,
      "ror": 3879,
      "paper": 3880,
      "})": 3881,
      "case": 3882,
      "Ġbreaking": 3883,
      "tas": 3884,
      "Ġrelatively": 3885,
      "ites": 3886,
      "Ġideal": 3887,
      "Ġtypically": 3888,
      "ĠQu": 3889,
      "ogen": 3890,
      "ĠAI": 3891,
      "size": 3892,
      "ĠAGN": 3893,
      "she": 3894,
      "Ġinfin": 3895,
      "ares": 3896,
      "MB": 3897,
      "Ġexpect": 3898,
      "eck": 3899,
      "Ġkind": 3900,
      "Ġargue": 3901,
      "Ġsynthetic": 3902,
      "critical": 3903,
      "Ġsquare": 3904,
      "demonstrate": 3905,
      "Ġmatching": 3906,
      "dust": 3907,
      "Ġresi": 3908,
      "Ġimprovement": 3909,
      "Ġnext": 3910,
      "ĠAr": 3911,
      "Ġintegrated": 3912,
      "Ġparticularly": 3913,
      "ĠNetwork": 3914,
      "Ġunknown": 3915,
      "yr": 3916,
      "MR": 3917,
      "Ġappropriate": 3918,
      "Ġrisk": 3919,
      "Ġneutral": 3920,
      "Ġrecei": 3921,
      "ffic": 3922,
      "vectors": 3923,
      "Ġhot": 3924,
      "/-": 3925,
      "Ġnow": 3926,
      "Ġwater": 3927,
      "ĠThey": 3928,
      "Ġspectroscopy": 3929,
      "trie": 3930,
      "Ġdensities": 3931,
      "equi": 3932,
      "ellig": 3933,
      "Ġ12": 3934,
      "Ġcompe": 3935,
      "For": 3936,
      "ĠLo": 3937,
      "Al": 3938,
      "Ġrenormal": 3939,
      "ited": 3940,
      "Ġsecurity": 3941,
      "Ġkin": 3942,
      "Ġcolor": 3943,
      "LS": 3944,
      "ithub": 3945,
      "amer": 3946,
      "new": 3947,
      "Ġregression": 3948,
      "Ġvertex": 3949,
      "Ġfermion": 3950,
      "Ġwi": 3951,
      "dynamic": 3952,
      "60": 3953,
      "An": 3954,
      "dot": 3955,
      "plane": 3956,
      "Ġmapping": 3957,
      "Ġwavelength": 3958,
      "part": 3959,
      "bf": 3960,
      "Ġoverall": 3961,
      "Ġplace": 3962,
      "Ġparad": 3963,
      "Ġsimultaneously": 3964,
      "Ġrelaxation": 3965,
      "Ġtreatment": 3966,
      "oung": 3967,
      "alk": 3968,
      "weak": 3969,
      "Ġgenerally": 3970,
      "tz": 3971,
      "Ġtend": 3972,
      "ilbert": 3973,
      "Ġperturbations": 3974,
      "Ġdissip": 3975,
      "Ġdevice": 3976,
      "dings": 3977,
      "atom": 3978,
      "Ġrecur": 3979,
      "Ġuniverse": 3980,
      "Ġthough": 3981,
      "Ġallowing": 3982,
      "active": 3983,
      "ĠEu": 3984,
      "Ġaspects": 3985,
      "uration": 3986,
      "rangian": 3987,
      "agrangian": 3988,
      "study": 3989,
      "Ġtrap": 3990,
      "Ġtesting": 3991,
      "Ġcut": 3992,
      "classical": 3993,
      "}(\\": 3994,
      "Ġphotons": 3995,
      "Ġnumerically": 3996,
      "first": 3997,
      "100": 3998,
      "Ġorgan": 3999,
      "Ġalways": 4000,
      "Ġevaluated": 4001,
      "Ġ``": 4002,
      "It": 4003,
      "ultim": 4004,
      "Ġtopology": 4005,
      "Ġtests": 4006,
      "vision": 4007,
      "Ġcorrelated": 4008,
      "].": 4009,
      "dat": 4010,
      "Ġcapacity": 4011,
      "exam": 4012,
      "idden": 4013,
      "utative": 4014,
      "Ġmodule": 4015,
      "rec": 4016,
      "prob": 4017,
      "Ġdecomposition": 4018,
      "EC": 4019,
      "github": 4020,
      "rich": 4021,
      "Ġperm": 4022,
      "Ġtail": 4023,
      "Ġinterpret": 4024,
      "sup": 4025,
      "asily": 4026,
      "Ġchoice": 4027,
      "inst": 4028,
      "Ġtaking": 4029,
      "minim": 4030,
      "assive": 4031,
      "Ġexhibits": 4032,
      "omorphism": 4033,
      "Ġpolynomials": 4034,
      "ously": 4035,
      "Ġpass": 4036,
      "Ġratios": 4037,
      "ibration": 4038,
      "Ġprivacy": 4039,
      "pul": 4040,
      "Ġ15": 4041,
      "Ġtransformation": 4042,
      "forming": 4043,
      "surface": 4044,
      "li": 4045,
      "sum": 4046,
      "Ġintensity": 4047,
      "Ġvertices": 4048,
      "strong": 4049,
      "quality": 4050,
      "23": 4051,
      "usive": 4052,
      "ĠAlthough": 4053,
      "Ġ($\\": 4054,
      "tely": 4055,
      "only": 4056,
      "Ġhypothes": 4057,
      "Ġthick": 4058,
      "Ġhomogeneous": 4059,
      "stream": 4060,
      "overed": 4061,
      "Ġstream": 4062,
      "Ġimplies": 4063,
      "Ġannot": 4064,
      "wn": 4065,
      "self": 4066,
      "Ġconfigurations": 4067,
      "Ġneeded": 4068,
      "chi": 4069,
      "Ġbal": 4070,
      "odal": 4071,
      "odot": 4072,
      "Ġelastic": 4073,
      "galax": 4074,
      "Ġimproves": 4075,
      "magn": 4076,
      "ĠLHC": 4077,
      "Ġadaptive": 4078,
      "Ġsection": 4079,
      "Ġrules": 4080,
      "framework": 4081,
      "Ġsee": 4082,
      "observed": 4083,
      "Con": 4084,
      "istence": 4085,
      "associ": 4086,
      "manifold": 4087,
      "Ġelectromagnetic": 4088,
      "Ġprecise": 4089,
      "aged": 4090,
      "Ġimplemented": 4091,
      "Ġusually": 4092,
      "Ġund": 4093,
      "Ġinstability": 4094,
      "Ġoffer": 4095,
      "Ġcategory": 4096,
      "Ġtrue": 4097,
      "Ġcrystal": 4098,
      "techniqu": 4099,
      "Ġche": 4100,
      "ubble": 4101,
      "Ġlast": 4102,
      "Ġbase": 4103,
      "Ġformed": 4104,
      "Ġdepending": 4105,
      "ĠIm": 4106,
      "Ġexcitation": 4107,
      "Ġinterpretation": 4108,
      "Ġprofiles": 4109,
      "Ne": 4110,
      "Ġboson": 4111,
      "Ġcoefficient": 4112,
      "alls": 4113,
      "onon": 4114,
      "optimal": 4115,
      "Ġenable": 4116,
      "ads": 4117,
      "psilon": 4118,
      "ĠGalactic": 4119,
      "Ġfrequencies": 4120,
      "-\\": 4121,
      "olec": 4122,
      "user": 4123,
      "consider": 4124,
      "Ġnuclei": 4125,
      "Ġoperations": 4126,
      "Ġembedding": 4127,
      "Ġaims": 4128,
      "cite": 4129,
      "Ġbin": 4130,
      "aps": 4131,
      "ues": 4132,
      "similar": 4133,
      "igital": 4134,
      "oments": 4135,
      "ems": 4136,
      "emph": 4137,
      "Co": 4138,
      "bolic": 4139,
      "Ġphenomenon": 4140,
      "invariant": 4141,
      "uc": 4142,
      "ĠTherefore": 4143,
      "$^{-": 4144,
      "Ġoscillations": 4145,
      "Ġcomparable": 4146,
      "-$": 4147,
      "Ġlocally": 4148,
      "versity": 4149,
      "bo": 4150,
      "thogonal": 4151,
      "Ġquadratic": 4152,
      "studi": 4153,
      "Ġaccording": 4154,
      "Ġmathematical": 4155,
      "idel": 4156,
      "Ġpersp": 4157,
      "Ġedges": 4158,
      "Ex": 4159,
      "Ġrational": 4160,
      "applications": 4161,
      "Ġmonit": 4162,
      "channel": 4163,
      "Ġside": 4164,
      "rable": 4165,
      "Ġkinetic": 4166,
      "elihood": 4167,
      "Ġvehic": 4168,
      "dimension": 4169,
      "Ġglu": 4170,
      "Ġcomplement": 4171,
      "LP": 4172,
      "domain": 4173,
      "Ġattacks": 4174,
      "Ġconformal": 4175,
      "Ġgame": 4176,
      "Ġdiverse": 4177,
      "cond": 4178,
      "EM": 4179,
      "Ġfractional": 4180,
      "related": 4181,
      "Ġframe": 4182,
      "tificial": 4183,
      "Ġsimulated": 4184,
      "Ġseparation": 4185,
      "finement": 4186,
      "itely": 4187,
      "combin": 4188,
      "deg": 4189,
      "omb": 4190,
      "rams": 4191,
      "dependence": 4192,
      "ixel": 4193,
      "position": 4194,
      "Ġmaintain": 4195,
      "}}": 4196,
      "atives": 4197,
      "Ġadversarial": 4198,
      "elian": 4199,
      "abilistic": 4200,
      "Ġenough": 4201,
      "Ġtechnology": 4202,
      "Ġprimary": 4203,
      "weight": 4204,
      "Ġage": 4205,
      "ulus": 4206,
      "Ġnode": 4207,
      "ĠFrom": 4208,
      "atorial": 4209,
      "sch": 4210,
      "ĠLy": 4211,
      "equation": 4212,
      "Ġpowerful": 4213,
      "Ġspacetime": 4214,
      "ĠPl": 4215,
      "Ġlocalization": 4216,
      "isson": 4217,
      "Ġinside": 4218,
      "Ġnorm": 4219,
      "Ġdriving": 4220,
      "Ġsettings": 4221,
      "Ġmolecules": 4222,
      "SC": 4223,
      "tensive": 4224,
      "Ġpotentials": 4225,
      "80": 4226,
      "Ġevol": 4227,
      "photon": 4228,
      "eness": 4229,
      "design": 4230,
      "Ġkm": 4231,
      "idal": 4232,
      "rief": 4233,
      "Ġsupernova": 4234,
      "ourier": 4235,
      "Ġidea": 4236,
      "ET": 4237,
      "tr": 4238,
      "lin": 4239,
      "Ġdam": 4240,
      "left": 4241,
      "provid": 4242,
      "ready": 4243,
      "Ġinteger": 4244,
      "Ġapplying": 4245,
      "arth": 4246,
      "long": 4247,
      "SR": 4248,
      "Ġeffor": 4249,
      "Ġgrid": 4250,
      "Ġox": 4251,
      "rightarrow": 4252,
      "Ġfreedom": 4253,
      "uments": 4254,
      "ĠEn": 4255,
      "ĠTeV": 4256,
      "has": 4257,
      "irtual": 4258,
      "Ġnaturally": 4259,
      "hers": 4260,
      "Ġwhole": 4261,
      "ĠMarkov": 4262,
      "rays": 4263,
      "Ġvarying": 4264,
      "elastic": 4265,
      "Ġcomposition": 4266,
      "Ġappears": 4267,
      "ended": 4268,
      "power": 4269,
      "Ġimplications": 4270,
      "Ġoccurs": 4271,
      "raction": 4272,
      "down": 4273,
      "Ġeasily": 4274,
      "Ġbands": 4275,
      "mann": 4276,
      "source": 4277,
      "Ġret": 4278,
      "SP": 4279,
      "Ġquestions": 4280,
      "Ġrule": 4281,
      "Ġoperation": 4282,
      "Ġexplan": 4283,
      "ched": 4284,
      "olated": 4285,
      "fold": 4286,
      "Ġreaction": 4287,
      "Ġconclude": 4288,
      "Ġdelay": 4289,
      "Ġdistingu": 4290,
      "Ġenabl": 4291,
      "burst": 4292,
      "Ġstress": 4293,
      "ports": 4294,
      "Ġspeech": 4295,
      "itted": 4296,
      "AP": 4297,
      "ĠUni": 4298,
      "ractive": 4299,
      "forcement": 4300,
      "Ġselected": 4301,
      "Ġproton": 4302,
      "ĠMo": 4303,
      "Ġweighted": 4304,
      "Ġmaximal": 4305,
      "Ġphoto": 4306,
      "rial": 4307,
      "ĠIR": 4308,
      "Ġfamil": 4309,
      "formed": 4310,
      "iring": 4311,
      "Ġ30": 4312,
      "Ġmanifolds": 4313,
      "single": 4314,
      "Ġfacilit": 4315,
      "Ġmut": 4316,
      "Ġforward": 4317,
      "ĠHall": 4318,
      "Ġinstead": 4319,
      "Ġshock": 4320,
      "Ġtakes": 4321,
      "Ġreference": 4322,
      "Ġembedded": 4323,
      "experiments": 4324,
      "both": 4325,
      "Ġpast": 4326,
      "ames": 4327,
      "Ġemplo": 4328,
      "vices": 4329,
      "Ġcanonical": 4330,
      "Se": 4331,
      "small": 4332,
      "Ġretrie": 4333,
      "sequently": 4334,
      "Ġdop": 4335,
      "Ġlever": 4336,
      "ittle": 4337,
      "ĠDe": 4338,
      "Ġpartition": 4339,
      "Ġquantitative": 4340,
      "Ġcompletely": 4341,
      "ĠAll": 4342,
      "Ġswit": 4343,
      "Ġconver": 4344,
      "Ġresources": 4345,
      "conductivity": 4346,
      "Ġsus": 4347,
      "law": 4348,
      "discuss": 4349,
      "rations": 4350,
      "oli": 4351,
      "spired": 4352,
      "Ġmechanical": 4353,
      "Ġemployed": 4354,
      "evalu": 4355,
      "moment": 4356,
      "reme": 4357,
      "cepts": 4358,
      "Ġburst": 4359,
      "ĠCl": 4360,
      "tered": 4361,
      "Ġqualit": 4362,
      "Ġagent": 4363,
      "describ": 4364,
      "requi": 4365,
      "istance": 4366,
      "Ġcandidate": 4367,
      "evolution": 4368,
      "Ġcomprehensive": 4369,
      "Ġsuperior": 4370,
      "ĠAdditionally": 4371,
      "}}$": 4372,
      "Ġadvantage": 4373,
      "Ġthird": 4374,
      "obtained": 4375,
      "including": 4376,
      "appa": 4377,
      "âĢĻ": 4378,
      "ĠLe": 4379,
      "az": 4380,
      "Ġhighlight": 4381,
      "Ġaffect": 4382,
      "Ġsix": 4383,
      "datas": 4384,
      "than": 4385,
      "Ġcaused": 4386,
      "Ġarise": 4387,
      "Ġharmonic": 4388,
      "ĠNew": 4389,
      "21": 4390,
      "effective": 4391,
      "ĠSince": 4392,
      "otentially": 4393,
      "iting": 4394,
      "Ġinsights": 4395,
      "Ġded": 4396,
      "Ġinterference": 4397,
      "conditions": 4398,
      "Ġmill": 4399,
      "Ġinflation": 4400,
      "ah": 4401,
      "Ġcharacterization": 4402,
      "Ġparts": 4403,
      "ĠRieman": 4404,
      "Ġexpressions": 4405,
      "Ġsubset": 4406,
      "interaction": 4407,
      "Ġcouplings": 4408,
      "Ġface": 4409,
      "Ġdeploy": 4410,
      "neg": 4411,
      "atible": 4412,
      "Ġnarrow": 4413,
      "Ġdiscovery": 4414,
      "eria": 4415,
      "Ġbund": 4416,
      "Ġexactly": 4417,
      "Ġvision": 4418,
      "Ġcontaining": 4419,
      "Ġensemble": 4420,
      "Re": 4421,
      "However": 4422,
      "label": 4423,
      "Ġtunnel": 4424,
      "Ġearlier": 4425,
      "\\,": 4426,
      "Ġgover": 4427,
      "inforcement": 4428,
      "achie": 4429,
      "three": 4430,
      "Ġnearly": 4431,
      "Ġ$^{": 4432,
      "MD": 4433,
      "Ġturn": 4434,
      "Ġresource": 4435,
      "aring": 4436,
      "Ġgeneralize": 4437,
      "Ġrecomm": 4438,
      "Ġremark": 4439,
      "Ġcatal": 4440,
      "Ġsizes": 4441,
      "ography": 4442,
      "+\\": 4443,
      "Ġmanner": 4444,
      "Ġintegration": 4445,
      "aim": 4446,
      "uni": 4447,
      "Ġget": 4448,
      "Ġaugment": 4449,
      "Ġcarried": 4450,
      "Ġstage": 4451,
      "homogeneous": 4452,
      "Ġq": 4453,
      "Ġdr": 4454,
      "Ġquantities": 4455,
      "Ġincreased": 4456,
      "Ġplanets": 4457,
      "Ġperfect": 4458,
      "Ġinstrum": 4459,
      "transition": 4460,
      "Ġlocation": 4461,
      "Ġmu": 4462,
      "ressive": 4463,
      "anning": 4464,
      "approx": 4465,
      "Ġidenti": 4466,
      "Ġfaster": 4467,
      "DF": 4468,
      "Ġaggreg": 4469,
      "agement": 4470,
      "vable": 4471,
      "Ġlatent": 4472,
      "GB": 4473,
      "AL": 4474,
      "Ġrich": 4475,
      "rimin": 4476,
      "Ġmanip": 4477,
      "Ġdescribes": 4478,
      "Ġkinematic": 4479,
      "Ġreduces": 4480,
      "Ġobservational": 4481,
      "Ġstationary": 4482,
      "Ġtested": 4483,
      "construct": 4484,
      "Ġconstrained": 4485,
      "Ġweakly": 4486,
      "Ġsharp": 4487,
      "}$-": 4488,
      "itig": 4489,
      "psi": 4490,
      "ĠNGC": 4491,
      "Ġmechanics": 4492,
      "ĠSh": 4493,
      "cup": 4494,
      "Ġtraffic": 4495,
      "complete": 4496,
      "oustic": 4497,
      "Ġweights": 4498,
      "ĠEinstein": 4499,
      "Ġreveals": 4500,
      "uting": 4501,
      "variants": 4502,
      "Ġsolit": 4503,
      "24": 4504,
      "emission": 4505,
      "Ġ13": 4506,
      "Ġsil": 4507,
      "Ġinfrared": 4508,
      "Ġbuild": 4509,
      "behavi": 4510,
      "second": 4511,
      "Ms": 4512,
      "Ġrecover": 4513,
      "ĠAp": 4514,
      "Ġmoments": 4515,
      "Ġdistances": 4516,
      "Ġpic": 4517,
      "corresponding": 4518,
      "ilities": 4519,
      "ĠSur": 4520,
      "ley": 4521,
      "che": 4522,
      "Ġmodules": 4523,
      "Ġscience": 4524,
      "ystem": 4525,
      "import": 4526,
      "Ġ50": 4527,
      "gravity": 4528,
      "Ġmethodology": 4529,
      "Ġanomalous": 4530,
      "Ġsolid": 4531,
      "aves": 4532,
      "Ġdetectors": 4533,
      "Ġbrief": 4534,
      "Ġvariational": 4535,
      "Ġcavity": 4536,
      "Ġscien": 4537,
      "Ġirre": 4538,
      "Ġdescribing": 4539,
      "Ġselect": 4540,
      "Ġmainly": 4541,
      "rings": 4542,
      "Ġ'": 4543,
      "Ġelliptic": 4544,
      "Ġactions": 4545,
      "Ġrequirements": 4546,
      "igm": 4547,
      "Ġamplitudes": 4548,
      "Ġsymmetries": 4549,
      "Ġconsequence": 4550,
      "ĠUV": 4551,
      "Ġbody": 4552,
      "ĠLi": 4553,
      "aling": 4554,
      "chang": 4555,
      "reless": 4556,
      "rentz": 4557,
      "Ġconstit": 4558,
      "Ġbelie": 4559,
      "Ġdirections": 4560,
      "while": 4561,
      "matrix": 4562,
      "crete": 4563,
      "Ġcommunity": 4564,
      "iterion": 4565,
      "uz": 4566,
      "angular": 4567,
      "Ġsurve": 4568,
      "Ġright": 4569,
      "Ġabundance": 4570,
      "fluid": 4571,
      "Ġcall": 4572,
      "Ġcomb": 4573,
      "Ġtight": 4574,
      "asc": 4575,
      "Ġtransi": 4576,
      "Ġobservables": 4577,
      "Ġvariability": 4578,
      "syn": 4579,
      "shot": 4580,
      "Ġspread": 4581,
      "^{+": 4582,
      "ening": 4583,
      "there": 4584,
      "Ġconsum": 4585,
      "clide": 4586,
      "Ġfermions": 4587,
      "Ġpurpose": 4588,
      "Ġsolved": 4589,
      "IT": 4590,
      "arent": 4591,
      "Ġcub": 4592,
      "Ġsensing": 4593,
      "ulomb": 4594,
      "LA": 4595,
      "Sch": 4596,
      "Ġtren": 4597,
      "sively": 4598,
      "Ġdeco": 4599,
      "Ġanalyses": 4600,
      "Ġlearned": 4601,
      "hole": 4602,
      "phas": 4603,
      "Ġlet": 4604,
      "urn": 4605,
      "espite": 4606,
      "variate": 4607,
      "Ġsatell": 4608,
      "ĠGP": 4609,
      "Ġareas": 4610,
      "observations": 4611,
      "nce": 4612,
      "propose": 4613,
      "Ġvisc": 4614,
      "Ġvortex": 4615,
      "ĠTrans": 4616,
      "anding": 4617,
      "standard": 4618,
      "homology": 4619,
      "solutions": 4620,
      "Ġsector": 4621,
      ")$-": 4622,
      "Ġcells": 4623,
      "Ġspecies": 4624,
      "correlation": 4625,
      "Ġjust": 4626,
      "clidean": 4627,
      "rip": 4628,
      "Ġorbits": 4629,
      "rict": 4630,
      "ducible": 4631,
      "Ġfusion": 4632,
      "Ġcm": 4633,
      "Ġshear": 4634,
      "Ġpulse": 4635,
      "Ġenhancement": 4636,
      "ĠkeV": 4637,
      "Ġanisotropy": 4638,
      "ĠLagrangian": 4639,
      "osen": 4640,
      "Ġbaseline": 4641,
      "Ġcare": 4642,
      "do": 4643,
      "sets": 4644,
      "Ġreconstruct": 4645,
      "Ġaccurately": 4646,
      "Ġidentification": 4647,
      "chall": 4648,
      "Ġinstance": 4649,
      "cc": 4650,
      "DA": 4651,
      "Ġshap": 4652,
      "Ġshowed": 4653,
      "ĠSecond": 4654,
      "Ġhydrogen": 4655,
      "Ġrely": 4656,
      "enh": 4657,
      "ĠStandard": 4658,
      "onomous": 4659,
      "],": 4660,
      "experimental": 4661,
      "noise": 4662,
      "Ġpropor": 4663,
      "70": 4664,
      "Ġalready": 4665,
      "ulas": 4666,
      "Ġmove": 4667,
      "commun": 4668,
      "bal": 4669,
      "Ġcollected": 4670,
      "approximation": 4671,
      "Ġstra": 4672,
      "Ġexec": 4673,
      "earning": 4674,
      "ularities": 4675,
      "Ġcommonly": 4676,
      "Gs": 4677,
      "Ġlocalized": 4678,
      "Ġrecord": 4679,
      "fl": 4680,
      "LO": 4681,
      "Ġcandidates": 4682,
      "simulations": 4683,
      "mathbf": 4684,
      "Ġcollection": 4685,
      "Ġstabil": 4686,
      "Ġcontrolled": 4687,
      "ĠFourier": 4688,
      "artic": 4689,
      "ĠBoth": 4690,
      "implement": 4691,
      "Ġmoving": 4692,
      "rier": 4693,
      "statis": 4694,
      "Ġcooling": 4695,
      "itive": 4696,
      "Ġcha": 4697,
      "Ġnote": 4698,
      "textit": 4699,
      "Ġconducted": 4700,
      "Ġrecommend": 4701,
      "Ġinequality": 4702,
      "step": 4703,
      "planet": 4704,
      "CP": 4705,
      "Ġdefinition": 4706,
      "forward": 4707,
      "=\\": 4708,
      "Ġsteps": 4709,
      "tage": 4710,
      "Ġhis": 4711,
      "ancing": 4712,
      "Ġprogress": 4713,
      "ire": 4714,
      "bre": 4715,
      "enti": 4716,
      "Ġlimitations": 4717,
      "orage": 4718,
      "Ġdatab": 4719,
      "tein": 4720,
      "Ġhealth": 4721,
      "Ġcapabilities": 4722,
      "tures": 4723,
      "ention": 4724,
      "Ġmac": 4725,
      "cale": 4726,
      "ontaneous": 4727,
      "Ġcompan": 4728,
      "Ġmedia": 4729,
      "Ġsufficiently": 4730,
      "isely": 4731,
      "Ġrobot": 4732,
      "opes": 4733,
      "Ġstrain": 4734,
      "quanti": 4735,
      "Ġhence": 4736,
      "Ġfair": 4737,
      "Ġpseudo": 4738,
      "titive": 4739,
      "Ġcamer": 4740,
      "Ġholds": 4741,
      "ĠHilbert": 4742,
      "iers": 4743,
      "ounts": 4744,
      "Ġacceleration": 4745,
      "umerical": 4746,
      "groups": 4747,
      "Ġnor": 4748,
      "Ġyoung": 4749,
      "Ġshell": 4750,
      "Ġmob": 4751,
      "structures": 4752,
      "cip": 4753,
      "Ġbuilding": 4754,
      "ided": 4755,
      "infrared": 4756,
      "Ġwhereas": 4757,
      "Ġpubl": 4758,
      "Ġarising": 4759,
      "vities": 4760,
      "reson": 4761,
      "excit": 4762,
      "emp": 4763,
      "IN": 4764,
      "parti": 4765,
      "Ġspherical": 4766,
      "cepti": 4767,
      "Ġsensor": 4768,
      "Ġstudying": 4769,
      "Ġod": 4770,
      "Ġassumed": 4771,
      "Ġlin": 4772,
      "Ġlabels": 4773,
      "Ġexcess": 4774,
      "coll": 4775,
      "Ġdoc": 4776,
      "stood": 4777,
      "ean": 4778,
      "Ġcapable": 4779,
      "Ġmarg": 4780,
      "Ġdone": 4781,
      "frak": 4782,
      "anguages": 4783,
      "Ġusual": 4784,
      "multiple": 4785,
      "Ġdisorder": 4786,
      "iconduct": 4787,
      "Ġrequ": 4788,
      "particles": 4789,
      "illing": 4790,
      "Ġradiative": 4791,
      "Ġabsol": 4792,
      "ront": 4793,
      "Ġanisotropic": 4794,
      "ocal": 4795,
      "ĠAfter": 4796,
      "Ad": 4797,
      "relativistic": 4798,
      "riteria": 4799,
      "ills": 4800,
      "equations": 4801,
      "Ġcollabor": 4802,
      "Ġhyperbolic": 4803,
      "Ġitself": 4804,
      "Ġmid": 4805,
      "Ġsimilarity": 4806,
      "Ġsplitting": 4807,
      "Ġprogramming": 4808,
      "measurements": 4809,
      "Ġdominant": 4810,
      "abatic": 4811,
      "Ġconsisting": 4812,
      "Using": 4813,
      "osing": 4814,
      "ĠSi": 4815,
      "Ġcold": 4816,
      "continuous": 4817,
      "Ġcoinc": 4818,
      "defined": 4819,
      "ML": 4820,
      "coupling": 4821,
      "Ġabsence": 4822,
      "previous": 4823,
      "provide": 4824,
      "Ġhypothesis": 4825,
      "aff": 4826,
      "veloc": 4827,
      "Ġgrain": 4828,
      "dients": 4829,
      "optical": 4830,
      "Ġemphas": 4831,
      "Ġtracking": 4832,
      "Ġvariance": 4833,
      "valent": 4834,
      "andau": 4835,
      "Ġcombining": 4836,
      "Ġsky": 4837,
      "Ġdeformation": 4838,
      "Cs": 4839,
      "na": 4840,
      "Ġsuff": 4841,
      "Ġsetup": 4842,
      "Ġextracted": 4843,
      "Ġgreater": 4844,
      "Ġdiagnos": 4845,
      "environ": 4846,
      "sequence": 4847,
      "iding": 4848,
      "Ġinc": 4849,
      "Ġclouds": 4850,
      "rowave": 4851,
      "Ġhardware": 4852,
      "pop": 4853,
      "Ġsatisfy": 4854,
      "cross": 4855,
      "hand": 4856,
      "ĠOb": 4857,
      "Ġuncertainties": 4858,
      "Ġcycle": 4859,
      "anck": 4860,
      "Ġproducts": 4861,
      "Ġarray": 4862,
      "Ġwhite": 4863,
      "interactions": 4864,
      "ributes": 4865,
      "subset": 4866,
      "orous": 4867,
      "Ġestimator": 4868,
      "cas": 4869,
      "Ġfamilies": 4870,
      "Ġarchitectures": 4871,
      "ĠSe": 4872,
      "Ġexcitations": 4873,
      "processing": 4874,
      "Ġsuggested": 4875,
      "kin": 4876,
      "Ġconcepts": 4877,
      "Ġinvolves": 4878,
      "Ġvectors": 4879,
      "ĠResults": 4880,
      "ĠLarge": 4881,
      "hydro": 4882,
      "thermal": 4883,
      "Ġindicates": 4884,
      "mode": 4885,
      "antial": 4886,
      "SL": 4887,
      "Ġlogic": 4888,
      "ĠTwo": 4889,
      "lattice": 4890,
      "ubb": 4891,
      "Ġexcited": 4892,
      "erior": 4893,
      "Ġcomparing": 4894,
      "Ġregimes": 4895,
      "Ġallowed": 4896,
      "rust": 4897,
      "oted": 4898,
      "Ġouter": 4899,
      "existence": 4900,
      "hyper": 4901,
      "Ġconsistency": 4902,
      "Ġforces": 4903,
      "Ġproposes": 4904,
      "ĠMeV": 4905,
      "Ġintroduces": 4906,
      "Ġcollap": 4907,
      "portun": 4908,
      "stead": 4909,
      "SD": 4910,
      "Ġcausal": 4911,
      "sl": 4912,
      "networks": 4913,
      "maxim": 4914,
      "opy": 4915,
      "Ġstud": 4916,
      "ident": 4917,
      "Ġapproximately": 4918,
      "when": 4919,
      "associated": 4920,
      "FR": 4921,
      "ussion": 4922,
      "uth": 4923,
      "Ġastro": 4924,
      "Ġreflect": 4925,
      "Ġaxis": 4926,
      "ĠSO": 4927,
      "Ġcreate": 4928,
      "Ġread": 4929,
      "Ġmobile": 4930,
      "typ": 4931,
      "Ġremo": 4932,
      "tivation": 4933,
      "Ġperspective": 4934,
      "Ġextremely": 4935,
      "Ġtim": 4936,
      "Ġquery": 4937,
      "pler": 4938,
      "gin": 4939,
      "Ġthereby": 4940,
      "emic": 4941,
      "ached": 4942,
      "RL": 4943,
      "wide": 4944,
      "ones": 4945,
      "been": 4946,
      "Ġ16": 4947,
      "ino": 4948,
      "Ġexplained": 4949,
      "Ġlogarith": 4950,
      "Ġimproving": 4951,
      "afety": 4952,
      "Ġdipole": 4953,
      "rap": 4954,
      "ordered": 4955,
      "hern": 4956,
      "Ġoffers": 4957,
      "object": 4958,
      "Ġmodern": 4959,
      "prec": 4960,
      "ishes": 4961,
      "https": 4962,
      "Our": 4963,
      "ĠOp": 4964,
      "brane": 4965,
      "lumin": 4966,
      "Ġspatially": 4967,
      "hil": 4968,
      "into": 4969,
      "product": 4970,
      "Ġprobabilistic": 4971,
      "uming": 4972,
      "Ġcategories": 4973,
      "ĠUnder": 4974,
      "Ġtrade": 4975,
      "Ġpotentially": 4976,
      "Ġreliable": 4977,
      "ider": 4978,
      "condition": 4979,
      "uper": 4980,
      "Ġmitig": 4981,
      "ĠGener": 4982,
      "Ġextreme": 4983,
      "Ġdistor": 4984,
      "NA": 4985,
      "Ġresol": 4986,
      "Ġassuming": 4987,
      "Ġinvestigation": 4988,
      "construction": 4989,
      "Ġcarbon": 4990,
      "wing": 4991,
      "posed": 4992,
      "Ġthermodynamic": 4993,
      "sec": 4994,
      "ours": 4995,
      "Ġplanar": 4996,
      "tio": 4997,
      "representation": 4998,
      "random": 4999,
      "head": 5000,
      "SU": 5001,
      "Ġintellig": 5002,
      "ured": 5003,
      "unc": 5004,
      "Ġstead": 5005,
      "Ġtrajectories": 5006,
      "Ġpati": 5007,
      "Ġgenerative": 5008,
      "ographic": 5009,
      "Gaussian": 5010,
      "rincip": 5011,
      "Ġgiant": 5012,
      "Ġoutflow": 5013,
      "EP": 5014,
      "add": 5015,
      "generation": 5016,
      "Ġturbulence": 5017,
      "Ġnm": 5018,
      "interpre": 5019,
      "Ġunified": 5020,
      "joint": 5021,
      "negative": 5022,
      "Ġmedical": 5023,
      "Ġsteady": 5024,
      "partial": 5025,
      "cellent": 5026,
      "separ": 5027,
      "mathfrak": 5028,
      "Ġtheoretically": 5029,
      "formations": 5030,
      "ifying": 5031,
      "ĠPhys": 5032,
      "Ġfilms": 5033,
      "|\\": 5034,
      "SN": 5035,
      "Ġanswer": 5036,
      "pass": 5037,
      "Ġ14": 5038,
      "Ġerg": 5039,
      "hest": 5040,
      "Ġasymmetry": 5041,
      "some": 5042,
      "Ġconductivity": 5043,
      "imin": 5044,
      "algorithms": 5045,
      "problems": 5046,
      "characteristic": 5047,
      "Ġdisks": 5048,
      "Ġdiscovered": 5049,
      "Ġabst": 5050,
      "Ġvirtual": 5051,
      "Ġtransformations": 5052,
      "ĠPoisson": 5053,
      "Sigma": 5054,
      "ĠTelescope": 5055,
      "plet": 5056,
      "shifts": 5057,
      "Ġcurrently": 5058,
      "eries": 5059,
      "Ġconserv": 5060,
      "Ġanomaly": 5061,
      "90": 5062,
      "Ġsections": 5063,
      "component": 5064,
      "sibility": 5065,
      "LT": 5066,
      "ectives": 5067,
      "ampl": 5068,
      "then": 5069,
      "momentum": 5070,
      "Ġrare": 5071,
      "Ġequivalence": 5072,
      "Ġsynthesis": 5073,
      "static": 5074,
      "hard": 5075,
      "Ġonto": 5076,
      "Ġsuccessfully": 5077,
      "Ġplays": 5078,
      "Ġsurveys": 5079,
      "matter": 5080,
      "Ġconcentration": 5081,
      "Ġbuilt": 5082,
      "Ġdecrease": 5083,
      "cm": 5084,
      "Ġpractice": 5085,
      "Ġcompound": 5086,
      "pair": 5087,
      "Ġleft": 5088,
      "Ġtoo": 5089,
      "Ġalignment": 5090,
      "ĠSome": 5091,
      "Ġgalactic": 5092,
      "partite": 5093,
      "periodic": 5094,
      "Ġrelies": 5095,
      "Ġvalidate": 5096,
      "Ġparadigm": 5097,
      "detection": 5098,
      "Ġau": 5099,
      "Ġcriterion": 5100,
      "CA": 5101,
      "Ġextraction": 5102,
      "ombin": 5103,
      "Ġneutrinos": 5104,
      "ĠCoulomb": 5105,
      "sensi": 5106,
      "Ġpip": 5107,
      "ube": 5108,
      "Ġhidden": 5109,
      "ounter": 5110,
      "car": 5111,
      "Ġreducing": 5112,
      "tilde": 5113,
      "Ġwho": 5114,
      "kappa": 5115,
      "Ġcoherence": 5116,
      "Ġtranslation": 5117,
      "Ġpixel": 5118,
      "ending": 5119,
      "Ġnoisy": 5120,
      "Ġconverg": 5121,
      "ocation": 5122,
      "Ġvelocities": 5123,
      "Ġdominated": 5124,
      "35": 5125,
      "convex": 5126,
      "Ġfa": 5127,
      "prising": 5128,
      "Ġdeterministic": 5129,
      "Ġexponent": 5130,
      "find": 5131,
      "classification": 5132,
      "Ġord": 5133,
      "factor": 5134,
      "Ġconvolutional": 5135,
      "Ġlittle": 5136,
      "Ġconstants": 5137,
      "Ġuniqu": 5138,
      "ĠLorentz": 5139,
      "fil": 5140,
      "05": 5141,
      "Ġantif": 5142,
      "Ġdise": 5143,
      "idelity": 5144,
      "but": 5145,
      "Ġlens": 5146,
      "comes": 5147,
      "features": 5148,
      "Ġwireless": 5149,
      "vo": 5150,
      "centric": 5151,
      "BH": 5152,
      "vare": 5153,
      "Ġresonant": 5154,
      "connected": 5155,
      "Ġions": 5156,
      "hat": 5157,
      "Ġrenormalization": 5158,
      "Ġpaths": 5159,
      "Ġmoduli": 5160,
      "Ġsupersymmetric": 5161,
      "Ġlikelihood": 5162,
      "Ġcollective": 5163,
      "entang": 5164,
      "rents": 5165,
      "Ġindust": 5166,
      "IP": 5167,
      "iber": 5168,
      "recent": 5169,
      "day": 5170,
      "Ġquite": 5171,
      "Ġjets": 5172,
      "existing": 5173,
      "grable": 5174,
      "ectivity": 5175,
      "Ġimprovements": 5176,
      "grain": 5177,
      "spaces": 5178,
      "valued": 5179,
      "Ġalthough": 5180,
      "Ġresearc": 5181,
      "cing": 5182,
      "abs": 5183,
      "$^{": 5184,
      "varepsilon": 5185,
      "Ġdemonstrates": 5186,
      "ĠNo": 5187,
      "grams": 5188,
      "Ġconfidence": 5189,
      "spectral": 5190,
      "Ġcircular": 5191,
      "molec": 5192,
      "Ġcatalog": 5193,
      "ustom": 5194,
      "oot": 5195,
      "Ġvers": 5196,
      "Ġmarket": 5197,
      "Ġplanning": 5198,
      "Ġachieving": 5199,
      "Ġantifer": 5200,
      "possible": 5201,
      "Ġreasoning": 5202,
      "Ġwords": 5203,
      "result": 5204,
      "Ġdetails": 5205,
      "kes": 5206,
      "Ġmagnetization": 5207,
      "Ġstorage": 5208,
      "Ġassume": 5209,
      "Ġpose": 5210,
      "rincipal": 5211,
      "Ġengineering": 5212,
      "Ġbrain": 5213,
      "Ġmultiplic": 5214,
      "Ġspectroscopic": 5215,
      "CT": 5216,
      "ferences": 5217,
      "resolved": 5218,
      "Ġcircum": 5219,
      "Ġassign": 5220,
      "Ġpicture": 5221,
      "Ġmetallicity": 5222,
      "Ġaver": 5223,
      "image": 5224,
      "sun": 5225,
      "dynamical": 5226,
      "domin": 5227,
      "Ġdiagrams": 5228,
      "Ġslight": 5229,
      "Ġscientific": 5230,
      "princi": 5231,
      "graphs": 5232,
      "found": 5233,
      "Ġrotating": 5234,
      "Ġintroducing": 5235,
      "Ġbott": 5236,
      "Ġattract": 5237,
      "isen": 5238,
      "asible": 5239,
      "Ġdil": 5240,
      "Ġverify": 5241,
      "Es": 5242,
      "Ġmodular": 5243,
      "Ġhierarchical": 5244,
      "Ġways": 5245,
      "Ġste": 5246,
      "olating": 5247,
      "quad": 5248,
      "Ġprojective": 5249,
      "sat": 5250,
      "Ġpen": 5251,
      "uniform": 5252,
      "Ġformulas": 5253,
      "ople": 5254,
      "physics": 5255,
      "Ġmodelling": 5256,
      "uler": 5257,
      "Ġextends": 5258,
      "Ġneeds": 5259,
      "Ġlargest": 5260,
      "$(": 5261,
      "Ġchains": 5262,
      "former": 5263,
      "New": 5264,
      "elines": 5265,
      "Ġrough": 5266,
      "Ġweb": 5267,
      "MM": 5268,
      "tivities": 5269,
      "uristic": 5270,
      "Ġadvantages": 5271,
      "UV": 5272,
      "mple": 5273,
      "ĠLLMs": 5274,
      "Ġmeaning": 5275,
      "ugg": 5276,
      "scattering": 5277,
      "tian": 5278,
      "Ġsound": 5279,
      "ĠEarth": 5280,
      "Ġhistory": 5281,
      "uk": 5282,
      "Ġbond": 5283,
      "correct": 5284,
      "Ġsynchron": 5285,
      "Ġparticip": 5286,
      "cluster": 5287,
      "Ġinherent": 5288,
      "expon": 5289,
      "%.": 5290,
      "Ġlepton": 5291,
      "AV": 5292,
      "Ġartificial": 5293,
      "ades": 5294,
      "main": 5295,
      "ĠAlso": 5296,
      "Ġdifficul": 5297,
      "ĠMulti": 5298,
      "align": 5299,
      "Ġconj": 5300,
      "ĠAb": 5301,
      "Ġsearc": 5302,
      "pin": 5303,
      "ctic": 5304,
      "esides": 5305,
      "bounded": 5306,
      "Ġpopulations": 5307,
      "utes": 5308,
      "Ġabsolute": 5309,
      "theoretical": 5310,
      "Ġtunneling": 5311,
      "Ġposs": 5312,
      "Ġrepe": 5313,
      "Ġorthogonal": 5314,
      "Ġlanguages": 5315,
      "Ġsummar": 5316,
      "Ġstrict": 5317,
      "Ġmodulation": 5318,
      "ogn": 5319,
      "Ġtrajectory": 5320,
      "oh": 5321,
      "Ġinputs": 5322,
      "Ġpolarized": 5323,
      "ĠGa": 5324,
      "ĠLet": 5325,
      "ĠNumerical": 5326,
      "Ġcompression": 5327,
      "ĠUniverse": 5328,
      "Ġfollows": 5329,
      "Ġodd": 5330,
      "Ġbeh": 5331,
      "cate": 5332,
      "Ġasymptotically": 5333,
      "Ġmess": 5334,
      "Ġunitary": 5335,
      "romet": 5336,
      "Ġreflection": 5337,
      "LE": 5338,
      "generated": 5339,
      "cho": 5340,
      "relations": 5341,
      "spe": 5342,
      "orient": 5343,
      "coming": 5344,
      "Mo": 5345,
      "ros": 5346,
      "Ġmicroscopic": 5347,
      "Ġquantization": 5348,
      "Ġcollapse": 5349,
      "AI": 5350,
      "ĠGRB": 5351,
      "numerical": 5352,
      "Ġrevealed": 5353,
      "Ġfitting": 5354,
      "uzz": 5355,
      "test": 5356,
      "parts": 5357,
      "points": 5358,
      "Ġcompos": 5359,
      "Ġlocated": 5360,
      "Ġtack": 5361,
      "leading": 5362,
      "Ġclin": 5363,
      "itudinal": 5364,
      "Ġdecreases": 5365,
      "fac": 5366,
      "Ġcriteria": 5367,
      "Ġtrees": 5368,
      "lim": 5369,
      "Ġspontaneous": 5370,
      "Ġexceed": 5371,
      "Ġanalytically": 5372,
      "Ġunstable": 5373,
      "empl": 5374,
      "Ġdiscrimin": 5375,
      "Ġsurround": 5376,
      "Ġdrop": 5377,
      "Ġec": 5378,
      "Ġinvariants": 5379,
      "significantly": 5380,
      "velocity": 5381,
      "algebras": 5382,
      "mbol": 5383,
      "Ġ&": 5384,
      "commutative": 5385,
      "improve": 5386,
      "Ġcircuit": 5387,
      "sample": 5388,
      "Ġcarry": 5389,
      "Ġbenchmarks": 5390,
      "fine": 5391,
      "ologically": 5392,
      "ĠNeural": 5393,
      "Ġcount": 5394,
      "going": 5395,
      "Ġexplored": 5396,
      "Ġown": 5397,
      "task": 5398,
      "Ġhol": 5399,
      "fields": 5400,
      "accuracy": 5401,
      "tuning": 5402,
      "err": 5403,
      "Ġlate": 5404,
      "expected": 5405,
      "Ġenabling": 5406,
      "Ġga": 5407,
      "Ġlonger": 5408,
      "Ġtechnologies": 5409,
      "Ġextensions": 5410,
      "Ġconditional": 5411,
      "important": 5412,
      "Ġaffine": 5413,
      "inction": 5414,
      "Ġdigital": 5415,
      "Ġep": 5416,
      "Ġqubits": 5417,
      "Ġbil": 5418,
      "Ġtuning": 5419,
      "Ġsensors": 5420,
      "effect": 5421,
      "Ġprecisely": 5422,
      "chain": 5423,
      "}$)": 5424,
      "rank": 5425,
      "Ġtrace": 5426,
      "Ġcombinatorial": 5427,
      "oscill": 5428,
      "Ġpoor": 5429,
      "Ġautomatically": 5430,
      "Ġmissing": 5431,
      "Qu": 5432,
      "sufficient": 5433,
      "Ġchosen": 5434,
      "PI": 5435,
      "Ġphotometric": 5436,
      "Ġadjust": 5437,
      "ications": 5438,
      "Ġpossess": 5439,
      "Ġapplicable": 5440,
      "cosm": 5441,
      "oded": 5442,
      "AD": 5443,
      "Ġher": 5444,
      "oT": 5445,
      "Ġduality": 5446,
      "Ġviolation": 5447,
      "ĠSD": 5448,
      "Ġgames": 5449,
      "mplectic": 5450,
      "vance": 5451,
      "ĠLearning": 5452,
      "Ġmonitoring": 5453,
      "Ġbinaries": 5454,
      "ĠMet": 5455,
      "HD": 5456,
      "Ġquantify": 5457,
      "Ġlaws": 5458,
      "Ġanalyzing": 5459,
      "arest": 5460,
      "Ġreproduce": 5461,
      "33": 5462,
      "Ġunderstood": 5463,
      "Ġtransl": 5464,
      "nihil": 5465,
      "izable": 5466,
      "spectrum": 5467,
      "Ġrapidly": 5468,
      "Ġland": 5469,
      "Ġglass": 5470,
      "Ġwall": 5471,
      "Ġresonances": 5472,
      "within": 5473,
      "Ġbelong": 5474,
      "Ġlattices": 5475,
      "earch": 5476,
      "Ġbehaviors": 5477,
      "wavelength": 5478,
      "GR": 5479,
      "Ġgate": 5480,
      "CN": 5481,
      "xi": 5482,
      "galaxies": 5483,
      "igher": 5484,
      "Ġ{": 5485,
      "Ġmatch": 5486,
      "Ġapproximations": 5487,
      "Ġsphere": 5488,
      "Ġsafety": 5489,
      "Ġothers": 5490,
      "Ġetc": 5491,
      "ĠEuclidean": 5492,
      "Ġcorrespondence": 5493,
      "Ġcause": 5494,
      "Ġacoustic": 5495,
      "Ġprime": 5496,
      "To": 5497,
      "Ġcolum": 5498,
      "Ġarises": 5499,
      "Ġoverlap": 5500,
      "cdot": 5501,
      "Ġpartially": 5502,
      "clusions": 5503,
      "ĠGHz": 5504,
      "core": 5505,
      "rational": 5506,
      "agonal": 5507,
      "ĠDeep": 5508,
      "MT": 5509,
      "Ġwrit": 5510,
      "Ġcreated": 5511,
      "Ġquarks": 5512,
      "orn": 5513,
      "Ġrealized": 5514,
      "Ġprojection": 5515,
      "near": 5516,
      "clusive": 5517,
      "abric": 5518,
      "Ġdesired": 5519,
      "Ġdiscussion": 5520,
      "Ġovercome": 5521,
      "Ġcorresponds": 5522,
      "Ġdetermining": 5523,
      "strate": 5524,
      "arity": 5525,
      "Ġcompatible": 5526,
      "Ġkpc": 5527,
      "Ġproduces": 5528,
      "Ġsent": 5529,
      "Ġsubstantial": 5530,
      "polynomial": 5531,
      "Ġstack": 5532,
      "ĠML": 5533,
      "Ġgrowing": 5534,
      "ĠDespite": 5535,
      "perturbative": 5536,
      "adap": 5537,
      "available": 5538,
      "Ġ25": 5539,
      "Ġpric": 5540,
      "relation": 5541,
      "Ġmeasuring": 5542,
      "Ġtre": 5543,
      "ili": 5544,
      "operator": 5545,
      "Ġabsor": 5546,
      "Ġnearby": 5547,
      "asympto": 5548,
      "Ġobservable": 5549,
      "contribution": 5550,
      "Ġcapability": 5551,
      "Comp": 5552,
      "Ġclaim": 5553,
      "nder": 5554,
      "Ġincluded": 5555,
      "Ġspecifically": 5556,
      "box": 5557,
      "Ġlimiting": 5558,
      "Ġlater": 5559,
      "75": 5560,
      "differential": 5561,
      "configur": 5562,
      "Further": 5563,
      "Ġdefects": 5564,
      "Ġexcellent": 5565,
      "Ġembeddings": 5566,
      "ski": 5567,
      "oltz": 5568,
      "diffusion": 5569,
      "ĠExtensive": 5570,
      "ĠExperimental": 5571,
      "Ġmonot": 5572,
      "constant": 5573,
      "Si": 5574,
      "45": 5575,
      "eties": 5576,
      "Einstein": 5577,
      "Ġconnections": 5578,
      "Ġeigenvalues": 5579,
      "Ġinvolved": 5580,
      "ĠThrough": 5581,
      "Ġjunction": 5582,
      "rically": 5583,
      "Ġ18": 5584,
      "Ġregularization": 5585,
      "Ġsites": 5586,
      "compared": 5587,
      "mm": 5588,
      "terms": 5589,
      "Ġrestricted": 5590,
      "Ġinterfer": 5591,
      "Ġopportun": 5592,
      "oidal": 5593,
      "%,": 5594,
      "sitive": 5595,
      "Ġrepresented": 5596,
      "Ġsuggesting": 5597,
      "Ġcohomology": 5598,
      "ĠST": 5599,
      "effects": 5600,
      "lass": 5601,
      "Ġevolutionary": 5602,
      "optimization": 5603,
      "Ġretrieval": 5604,
      "Ġpow": 5605,
      "Ġprotot": 5606,
      "SI": 5607,
      "Ġyou": 5608,
      "Sim": 5609,
      "Ġperforming": 5610,
      "Ġdiscover": 5611,
      "95": 5612,
      "Ġflexible": 5613,
      "studied": 5614,
      "Ġeasy": 5615,
      "Ġ+/-": 5616,
      "Ġexpressed": 5617,
      "ecause": 5618,
      "distance": 5619,
      "Ġinvariance": 5620,
      "charge": 5621,
      "Ġordered": 5622,
      "contain": 5623,
      "challeng": 5624,
      "dial": 5625,
      "controll": 5626,
      "Ġscene": 5627,
      "Ġidentifying": 5628,
      "hel": 5629,
      "Ġrigid": 5630,
      "imeter": 5631,
      "Ġconfirmed": 5632,
      "net": 5633,
      "udio": 5634,
      "Ġrunning": 5635,
      "Ġhighest": 5636,
      "tification": 5637,
      "ĠAnal": 5638,
      "aware": 5639,
      "Ġinstances": 5640,
      "Ġturns": 5641,
      "everal": 5642,
      "oti": 5643,
      "ditive": 5644,
      "Ġscore": 5645,
      "bas": 5646,
      "Ġpredictive": 5647,
      "superconduct": 5648,
      "nan": 5649,
      "ices": 5650,
      "Te": 5651,
      "production": 5652,
      "compar": 5653,
      "Ġsa": 5654,
      "prot": 5655,
      "Ġferromagnetic": 5656,
      "SE": 5657,
      "Ġpossibly": 5658,
      "squ": 5659,
      "Ġreinforcement": 5660,
      "Ġprotocols": 5661,
      "ogeneity": 5662,
      "Ġsupervised": 5663,
      "Ġperturbative": 5664,
      "Ġinterp": 5665,
      "Ġdeveloping": 5666,
      "boundary": 5667,
      "Ġcalibration": 5668,
      "Ġcosts": 5669,
      "Ġdissipation": 5670,
      "Ġdetermination": 5671,
      "Ġmanagement": 5672,
      "Ġrepresents": 5673,
      "Ġutility": 5674,
      "sugg": 5675,
      "Ġemerging": 5676,
      "ref": 5677,
      "ĠGiven": 5678,
      "omorphisms": 5679,
      "ructure": 5680,
      "Ġdays": 5681,
      "Ġboundaries": 5682,
      "Ġinfer": 5683,
      "Ġstarting": 5684,
      "Ġarc": 5685,
      "lik": 5686,
      "probability": 5687,
      "Ġcrystals": 5688,
      "Ġordinary": 5689,
      "techniques": 5690,
      "ged": 5691,
      "Ġpion": 5692,
      "ronom": 5693,
      "odic": 5694,
      "ĠDif": 5695,
      "CC": 5696,
      "Ġheterogeneous": 5697,
      "ĠBe": 5698,
      "Ġvoltage": 5699,
      "26": 5700,
      "Ġlinks": 5701,
      "Th": 5702,
      "ank": 5703,
      "Ġbranching": 5704,
      "tokes": 5705,
      "Ġsemiconduct": 5706,
      "Ġheating": 5707,
      "cover": 5708,
      "Ġasymmetric": 5709,
      "control": 5710,
      "ometer": 5711,
      "Ġturbulent": 5712,
      "oy": 5713,
      "Ġprinciples": 5714,
      "Ġ40": 5715,
      "Ġspins": 5716,
      "Ġauthors": 5717,
      "lue": 5718,
      "Ġair": 5719,
      "SA": 5720,
      "mem": 5721,
      "Ġphonon": 5722,
      "Ġaway": 5723,
      "gi": 5724,
      "unct": 5725,
      "gments": 5726,
      "Ġautonomous": 5727,
      "PO": 5728,
      "Ġcompetitive": 5729,
      "Ġcombine": 5730,
      "Ġradii": 5731,
      "ĠRam": 5732,
      "Ġrotational": 5733,
      "Ġindicating": 5734,
      "inding": 5735,
      "ificance": 5736,
      "Ġmeson": 5737,
      "propag": 5738,
      "Ġgene": 5739,
      "Ġensure": 5740,
      "Ġpublished": 5741,
      "Ġresponsible": 5742,
      "Ġinfinity": 5743,
      "ĠHI": 5744,
      "metric": 5745,
      "Ġcomposed": 5746,
      "ining": 5747,
      "ĠDue": 5748,
      "galactic": 5749,
      "Ġiterative": 5750,
      "Ġdegra": 5751,
      "Ġisotropic": 5752,
      "GP": 5753,
      "olograph": 5754,
      "antially": 5755,
      "quasi": 5756,
      "MF": 5757,
      "elling": 5758,
      "Ġthickness": 5759,
      "Ġinequalities": 5760,
      "Ġreward": 5761,
      "distributions": 5762,
      "atus": 5763,
      "urrent": 5764,
      "Ġinsight": 5765,
      "sized": 5766,
      "ygen": 5767,
      "temporal": 5768,
      "Ġresearchers": 5769,
      "compact": 5770,
      "cryst": 5771,
      "ĠWeyl": 5772,
      "Ġparametric": 5773,
      "Ġemploying": 5774,
      "Ġecon": 5775,
      "qubit": 5776,
      "med": 5777,
      "Ġisolated": 5778,
      "Ġbosons": 5779,
      "DR": 5780,
      "Ġnull": 5781,
      "Ġsatisfies": 5782,
      "valid": 5783,
      "Ġmembers": 5784,
      "Ġcomputationally": 5785,
      "several": 5786,
      "direction": 5787,
      "Ġclassify": 5788,
      "Ġideas": 5789,
      "Ġdeal": 5790,
      "ĠDM": 5791,
      "Ġclosely": 5792,
      "ameter": 5793,
      "rack": 5794,
      "omic": 5795,
      "utation": 5796,
      "ether": 5797,
      "Ġknot": 5798,
      "without": 5799,
      "Ġsignatures": 5800,
      "Ġadapt": 5801,
      "experiment": 5802,
      "Ġput": 5803,
      "}-": 5804,
      "Ġbaryon": 5805,
      "Ġestimating": 5806,
      "ĠSurvey": 5807,
      "Ġsingularities": 5808,
      "simple": 5809,
      "Ġcamera": 5810,
      "Ġcustom": 5811,
      "vered": 5812,
      "Ġbox": 5813,
      "Ġcoding": 5814,
      "Ġtrack": 5815,
      "Ġflavor": 5816,
      "Ġsuperconductivity": 5817,
      "Ġderivative": 5818,
      "Ġcoverage": 5819,
      "Ġfocusing": 5820,
      "rele": 5821,
      "Ġabundances": 5822,
      "ĠMost": 5823,
      "resting": 5824,
      "Ġinstant": 5825,
      "Ġdiscreti": 5826,
      "Ġpeople": 5827,
      "Ġregarding": 5828,
      ")/": 5829,
      "Ġmodeled": 5830,
      "EE": 5831,
      "27": 5832,
      "investigate": 5833,
      "Ġsecondary": 5834,
      "Ġprobabilities": 5835,
      "Ġdetecting": 5836,
      "iness": 5837,
      "Ġexploration": 5838,
      "Ġmanif": 5839,
      "99": 5840,
      "constraints": 5841,
      "Ġrings": 5842,
      "Ġseparate": 5843,
      "stit": 5844,
      "issu": 5845,
      "Ġmicrowave": 5846,
      "Ġservice": 5847,
      "Ġbenefits": 5848,
      "Recent": 5849,
      "approaches": 5850,
      "Ġorientation": 5851,
      "Ġcooper": 5852,
      "Ġsuscepti": 5853,
      "Ġimplicit": 5854,
      "due": 5855,
      "tor": 5856,
      "Ġdatabase": 5857,
      "Ġcubic": 5858,
      "mean": 5859,
      "Ġformulate": 5860,
      "ĠGal": 5861,
      "sequent": 5862,
      "Ġinterpreted": 5863,
      "Ġmy": 5864,
      "Ġfib": 5865,
      "ude": 5866,
      "Ġsingularity": 5867,
      "context": 5868,
      "Ġsatellite": 5869,
      "preser": 5870,
      "acob": 5871,
      "Ġexplanation": 5872,
      "mission": 5873,
      "Ġshifts": 5874,
      "ques": 5875,
      "plicated": 5876,
      "Ġshared": 5877,
      "Ġoptimized": 5878,
      "Ġadvance": 5879,
      "topological": 5880,
      "opping": 5881,
      "efficiency": 5882,
      "Ġapparent": 5883,
      "Ġscreen": 5884,
      "Ġhierarchy": 5885,
      "Ġordering": 5886,
      "Ġneighbor": 5887,
      "Ġstronger": 5888,
      "Ġlowest": 5889,
      "Ġcontribute": 5890,
      "Ġdiversity": 5891,
      "Ġboost": 5892,
      "Ġresidual": 5893,
      "ana": 5894,
      "Ġguarantees": 5895,
      "Ġmixture": 5896,
      "Ġregularity": 5897,
      "Ġgenerates": 5898,
      "Ġoscillation": 5899,
      "Ġlist": 5900,
      "Ġdemand": 5901,
      "Ġintersection": 5902,
      "ulators": 5903,
      "Ġhandle": 5904,
      "Ġwindow": 5905,
      "ĠGreen": 5906,
      "Ġpulses": 5907,
      "ĠeV": 5908,
      "radiation": 5909,
      "ious": 5910,
      "Ġadvanced": 5911,
      "behavior": 5912,
      "length": 5913,
      "Ġautomated": 5914,
      "aker": 5915,
      "Ġproportional": 5916,
      "alline": 5917,
      "abolic": 5918,
      "parametric": 5919,
      "ĠBose": 5920,
      "Ġtargets": 5921,
      "massive": 5922,
      "ards": 5923,
      "Ġextent": 5924,
      "Ġtransient": 5925,
      "Ġpolicies": 5926,
      "Ġroom": 5927,
      "Sp": 5928,
      "Ġaffected": 5929,
      "These": 5930,
      "Ġfilam": 5931,
      "Ġshapes": 5932,
      "ĠMil": 5933,
      "Ġcovering": 5934,
      "Ġpositions": 5935,
      "ulner": 5936,
      "Ġsequential": 5937,
      "kov": 5938,
      "yle": 5939,
      "Ġranging": 5940,
      "Ġcompr": 5941,
      "Ġfract": 5942,
      "Ġdev": 5943,
      "Ġpredicts": 5944,
      "With": 5945,
      "ifications": 5946,
      "\",": 5947,
      "CM": 5948,
      "eting": 5949,
      "Ġentangled": 5950,
      "Ġwor": 5951,
      "Ġremarkable": 5952,
      "Ġcoordinates": 5953,
      "Ġidentity": 5954,
      "Ġsignature": 5955,
      "constrained": 5956,
      "Ġbroken": 5957,
      "Ġfollowed": 5958,
      "even": 5959,
      "texts": 5960,
      "connection": 5961,
      "Ġangles": 5962,
      "Ġobst": 5963,
      "Ġcoordinate": 5964,
      "Ġgeodes": 5965,
      "Ġintegrals": 5966,
      "each": 5967,
      "material": 5968,
      "ecting": 5969,
      "respectively": 5970,
      "accur": 5971,
      "Ġfilm": 5972,
      "Ġrelationships": 5973,
      "ĠBer": 5974,
      "Ġbriefly": 5975,
      "architect": 5976,
      "representations": 5977,
      "Ġplanetary": 5978,
      "ductive": 5979,
      "higher": 5980,
      "parallel": 5981,
      "various": 5982,
      "Ġhar": 5983,
      "shell": 5984,
      "isenberg": 5985,
      "Ġdifferenti": 5986,
      "ters": 5987,
      ")^": 5988,
      "28": 5989,
      "stars": 5990,
      "gap": 5991,
      "Ġbalance": 5992,
      "ĠAnd": 5993,
      "Ġappearance": 5994,
      "onses": 5995,
      "Ġcheck": 5996,
      "nat": 5997,
      "axwell": 5998,
      "Ġfocused": 5999,
      "Ġconsequences": 6000,
      "ale": 6001,
      "ifies": 6002,
      "Ġbranch": 6003,
      "imp": 6004,
      "reply": 6005,
      "Ġ11": 6006,
      "Ġcop": 6007,
      "ĠPre": 6008,
      "Ġserve": 6009,
      "Ġdistinguish": 6010,
      "ĠHubble": 6011,
      "Ġsupported": 6012,
      "assum": 6013,
      "rino": 6014,
      "Ġactu": 6015,
      "Ġoccup": 6016,
      "entioned": 6017,
      "Ġpurely": 6018,
      "Ġsuccessful": 6019,
      "Ġcurrents": 6020,
      "Ġenvelop": 6021,
      "placement": 6022,
      "matic": 6023,
      "posite": 6024,
      "Ġinterplay": 6025,
      "ĠIsing": 6026,
      "Ġdespite": 6027,
      "ĠAdS": 6028,
      "ĠCont": 6029,
      "vec": 6030,
      "Ġutilize": 6031,
      "Ġlensing": 6032,
      "Ġbiological": 6033,
      "Ġqueries": 6034,
      "Ġnamed": 6035,
      "considered": 6036,
      "Ġkeep": 6037,
      "Ġlay": 6038,
      "dop": 6039,
      "ollowing": 6040,
      "ĠMR": 6041,
      "HE": 6042,
      "Ch": 6043,
      "path": 6044,
      "Ġperiods": 6045,
      "Ġsite": 6046,
      "Ġslightly": 6047,
      "Ġlook": 6048,
      "awa": 6049,
      "Ġdisplay": 6050,
      "organ": 6051,
      "opic": 6052,
      "Ġpublicly": 6053,
      "Ġatmospheric": 6054,
      "Ġclinical": 6055,
      "Ġutilizing": 6056,
      "Po": 6057,
      "Ġqualitative": 6058,
      "avig": 6059,
      "Ġprograms": 6060,
      "Ġmotions": 6061,
      "Ġauthor": 6062,
      "Ġgran": 6063,
      "Ġload": 6064,
      "attention": 6065,
      "Ġleverage": 6066,
      "Ġunsupervised": 6067,
      "application": 6068,
      "Ġresolved": 6069,
      "ript": 6070,
      "ĠRecently": 6071,
      "Ġloops": 6072,
      "hot": 6073,
      "NS": 6074,
      "rownian": 6075,
      "DP": 6076,
      "origin": 6077,
      "Ġchanging": 6078,
      "ele": 6079,
      "Ġframes": 6080,
      "computational": 6081,
      "Ġpulsar": 6082,
      "limited": 6083,
      "Ġgravit": 6084,
      "Ġspiral": 6085,
      "rad": 6086,
      "seen": 6087,
      "umps": 6088,
      "Ġpairing": 6089,
      "Ġdynamically": 6090,
      "processes": 6091,
      "obal": 6092,
      "larg": 6093,
      "stage": 6094,
      "ĠLandau": 6095,
      "Ġtelescope": 6096,
      "axial": 6097,
      "Ġdedu": 6098,
      "enced": 6099,
      "Ġbarrier": 6100,
      "Ġmotivated": 6101,
      "presented": 6102,
      "Ġsituation": 6103,
      "Ġincreasingly": 6104,
      "mis": 6105,
      "Ġpi": 6106,
      "Ġunits": 6107,
      "Ġcircuits": 6108,
      "Ġsearches": 6109,
      "Ġwalk": 6110,
      "Ġtheorems": 6111,
      "Ġformulated": 6112,
      "Ġadaptation": 6113,
      "ĠTheore": 6114,
      "Ġmir": 6115,
      "Ġequip": 6116,
      "Ġredshifts": 6117,
      "harmonic": 6118,
      "given": 6119,
      "ested": 6120,
      "Ġvalidity": 6121,
      "Ġadvances": 6122,
      "ĠAm": 6123,
      "ived": 6124,
      "Ġidentical": 6125,
      "Ġneur": 6126,
      "Ġcombines": 6127,
      "Ġlargely": 6128,
      "Ġprincipal": 6129,
      "Ġmultim": 6130,
      "fluctu": 6131,
      "Ġsatisfying": 6132,
      "Ġelectrical": 6133,
      "Ġsched": 6134,
      "Ġdest": 6135,
      "Ġconstructing": 6136,
      "environment": 6137,
      "Ġestimators": 6138,
      "DEs": 6139,
      "}_{\\": 6140,
      "icate": 6141,
      "Ġsystematically": 6142,
      "$^": 6143,
      "diabatic": 6144,
      "ifted": 6145,
      "scenari": 6146,
      "Ġirreducible": 6147,
      "gravitational": 6148,
      "CR": 6149,
      "Ġgiving": 6150,
      "ethe": 6151,
      "Cu": 6152,
      "Ġdegenerate": 6153,
      "Ġarguments": 6154,
      "Ġsigma": 6155,
      "pled": 6156,
      "Ġextending": 6157,
      "Ġacces": 6158,
      "vection": 6159,
      "Ġlongitudinal": 6160,
      "Ġlinearly": 6161,
      "Ġelementary": 6162,
      "Ġtechnical": 6163,
      "}/": 6164,
      "ordial": 6165,
      "Ġimag": 6166,
      "Ġtidal": 6167,
      "robust": 6168,
      "Ġperforms": 6169,
      "igible": 6170,
      "acceler": 6171,
      "Ġexamined": 6172,
      "inity": 6173,
      "Ġoperating": 6174,
      "Ġdiagonal": 6175,
      "Ġconsumption": 6176,
      "Ġcomposite": 6177,
      "erge": 6178,
      "Ġ17": 6179,
      "map": 6180,
      "ĠSun": 6181,
      "Ġblocks": 6182,
      "Ġheuristic": 6183,
      "Ġcores": 6184,
      "Ġproven": 6185,
      "vere": 6186,
      "geometric": 6187,
      "Ġcondensate": 6188,
      "\".": 6189,
      "Ġdoping": 6190,
      "word": 6191,
      "Ġalpha": 6192,
      "Ġbrid": 6193,
      "uncertain": 6194,
      "Ġdeviation": 6195,
      "grained": 6196,
      "]$": 6197,
      "targ": 6198,
      "proton": 6199,
      "ĠSP": 6200,
      "complexity": 6201,
      "Ġcolumn": 6202,
      "Ġinversion": 6203,
      "Ġacqui": 6204,
      "Ġcosmology": 6205,
      "Ġtension": 6206,
      "Ġrealization": 6207,
      "Ġemergence": 6208,
      "loss": 6209,
      "Furthermore": 6210,
      "Ġoptimize": 6211,
      "ĠSystem": 6212,
      "Ġsimulate": 6213,
      "Ġsimply": 6214,
      "Ġsmart": 6215,
      "Ġargument": 6216,
      "ionization": 6217,
      "asibility": 6218,
      "empt": 6219,
      "irich": 6220,
      "Ġbrightness": 6221,
      "Ġdiscrep": 6222,
      "Ġposterior": 6223,
      "input": 6224,
      "language": 6225,
      "irichlet": 6226,
      "conventional": 6227,
      "jected": 6228,
      "Ġcycles": 6229,
      "Ġroot": 6230,
      "omatic": 6231,
      "poch": 6232,
      "03": 6233,
      "Ġmission": 6234,
      "Ġ(\\": 6235,
      "Ġdiffer": 6236,
      "many": 6237,
      "02": 6238,
      "Ġslope": 6239,
      "Ġconcerning": 6240,
      "Ġlogarithmic": 6241,
      "phenomen": 6242,
      "Ġdielectric": 6243,
      "44": 6244,
      "Ġrobots": 6245,
      "TE": 6246,
      "making": 6247,
      "Ġservices": 6248,
      "mers": 6249,
      "inger": 6250,
      "Ġhadronic": 6251,
      "Ġlabor": 6252,
      "ĠEuler": 6253,
      "Ġlabeled": 6254,
      "Ġcomputations": 6255,
      "uling": 6256,
      "Sh": 6257,
      "Ġold": 6258,
      "ĠYang": 6259,
      "Ġstraight": 6260,
      "var": 6261,
      "Ġchaotic": 6262,
      "Ġanalogous": 6263,
      "Ġdwarfs": 6264,
      "87": 6265,
      "Ġpeaks": 6266,
      "Ġastrophysical": 6267,
      "LR": 6268,
      "Ġbandwidth": 6269,
      "riction": 6270,
      "Ġswitching": 6271,
      "Ġbundle": 6272,
      "Ġaccom": 6273,
      "La": 6274,
      "Ġmag": 6275,
      "Ġoutside": 6276,
      "ĠQuantum": 6277,
      "manifolds": 6278,
      "Ġexpectation": 6279,
      "Ġformer": 6280,
      "Ġmassless": 6281,
      "Ġtopic": 6282,
      "ermitian": 6283,
      "izer": 6284,
      "Ġball": 6285,
      "Ġreactions": 6286,
      "ĠExperiments": 6287,
      "cence": 6288,
      "Ġstages": 6289,
      "Ġclassifier": 6290,
      "Ġtravel": 6291,
      "forms": 6292,
      "Ġchem": 6293,
      "ĠObserv": 6294,
      "Ġdirected": 6295,
      "Ġdocument": 6296,
      "Ġclearly": 6297,
      "Ġvariant": 6298,
      "adron": 6299,
      "96": 6300,
      "respon": 6301,
      "Ġ|": 6302,
      "Ġpredicting": 6303,
      "nonlinear": 6304,
      "DS": 6305,
      "ĠPar": 6306,
      "functional": 6307,
      "Ġphotonic": 6308,
      "Ġuniformly": 6309,
      "Ġviscosity": 6310,
      "Ġmostly": 6311,
      "Ġpipeline": 6312,
      "placian": 6313,
      "Ġnucleon": 6314,
      "Ġvanishing": 6315,
      "igroup": 6316,
      "More": 6317,
      "ĠSM": 6318,
      "Ġdrift": 6319,
      "Ġanalyse": 6320,
      "Ġmobility": 6321,
      "Ġconversion": 6322,
      "ĠAss": 6323,
      "ĠMat": 6324,
      "Ġtorus": 6325,
      "riptions": 6326,
      "Ġsituations": 6327,
      "Ġpapers": 6328,
      "region": 6329,
      "ressible": 6330,
      "Ġabelian": 6331,
      "Ġdoub": 6332,
      "Ġunivers": 6333,
      "iti": 6334,
      "understanding": 6335,
      "Ġadiabatic": 6336,
      "Ġfiber": 6337,
      "urg": 6338,
      "acts": 6339,
      "08": 6340,
      "Ġmerger": 6341,
      "Ġgluon": 6342,
      "ounting": 6343,
      "Ġfacilitate": 6344,
      "Ġlocations": 6345,
      "sities": 6346,
      "Fs": 6347,
      "Ġcovariance": 6348,
      "Ġdesigns": 6349,
      "ĠSchr": 6350,
      "There": 6351,
      "Ġparity": 6352,
      "max": 6353,
      "series": 6354,
      "31": 6355,
      "Ġspac": 6356,
      "icular": 6357,
      "ĠPlanck": 6358,
      "Ġobtaining": 6359,
      "Ġgradients": 6360,
      "alse": 6361,
      "iliary": 6362,
      "Ġsurvi": 6363,
      "uning": 6364,
      "Ġencoding": 6365,
      "Ġrecogn": 6366,
      "32": 6367,
      "background": 6368,
      "Ġseparated": 6369,
      "Ġanten": 6370,
      "Ġmonol": 6371,
      "Ġmacroscopic": 6372,
      "Ġchrom": 6373,
      "Ġdefect": 6374,
      "site": 6375,
      "ĠInter": 6376,
      "Ġintegrable": 6377,
      "VID": 6378,
      "Ġcle": 6379,
      "els": 6380,
      "otal": 6381,
      "ĠCMB": 6382,
      "sche": 6383,
      "Ġguarantee": 6384,
      "Ġbeams": 6385,
      "IG": 6386,
      "Ġupdate": 6387,
      "Ġdisease": 6388,
      "xiliary": 6389,
      "Ġpred": 6390,
      "Ġstructured": 6391,
      "Ġadopted": 6392,
      "bro": 6393,
      "smooth": 6394,
      "interacting": 6395,
      "Ġoutcomes": 6396,
      "knowledge": 6397,
      "undred": 6398,
      "Ġstri": 6399,
      "Ġiner": 6400,
      "ĠCR": 6401,
      "Ġproofs": 6402,
      "Ġforming": 6403,
      "Ġwhy": 6404,
      "Ġart": 6405,
      "pendicular": 6406,
      "neighb": 6407,
      "branes": 6408,
      "Ġcasc": 6409,
      "Li": 6410,
      "Ġmodification": 6411,
      "coupled": 6412,
      "Ġexperience": 6413,
      "Ġtackle": 6414,
      "Ġvisible": 6415,
      "Ġdeli": 6416,
      "Ġtransp": 6417,
      "Ġheight": 6418,
      "Ġvideos": 6419,
      "tified": 6420,
      "aton": 6421,
      "Ġtil": 6422,
      "positive": 6423,
      "Ġabstract": 6424,
      "Ġconservation": 6425,
      "Ġrequiring": 6426,
      "satisf": 6427,
      "Ġdeb": 6428,
      "Ġantiferromagnetic": 6429,
      "Ġepoch": 6430,
      "ixing": 6431,
      "OT": 6432,
      "further": 6433,
      "Ġaudio": 6434,
      "computation": 6435,
      "Ġfabric": 6436,
      "Ġintra": 6437,
      "Ġmajority": 6438,
      "Ġpie": 6439,
      "ĠIntern": 6440,
      "Ġnucleus": 6441,
      "Ġatmosphere": 6442,
      "van": 6443,
      "ĠRecent": 6444,
      "ĠNetworks": 6445,
      "Ġeffort": 6446,
      "Ġtrunc": 6447,
      "tw": 6448,
      "Ġdiffraction": 6449,
      "explicit": 6450,
      "Ġfeasible": 6451,
      "Ġreliability": 6452,
      "casting": 6453,
      "sider": 6454,
      "IF": 6455,
      "itation": 6456,
      "Ġionization": 6457,
      "Ġproto": 6458,
      "Ġessentially": 6459,
      "Ġ->": 6460,
      "Ġallocation": 6461,
      "entral": 6462,
      "Ġintroduction": 6463,
      "Ġpresc": 6464,
      "ressing": 6465,
      "ensus": 6466,
      "Ġconfined": 6467,
      "Ġderivation": 6468,
      "Ġvarieties": 6469,
      "ĠCNN": 6470,
      "Ġrecovery": 6471,
      "Ġmagneto": 6472,
      "Recently": 6473,
      "Ġsymplectic": 6474,
      "Ġnontrivial": 6475,
      "PA": 6476,
      "Pl": 6477,
      "osphere": 6478,
      "Ġindividuals": 6479,
      "datasets": 6480,
      "Ġrelativity": 6481,
      "Ġphotometry": 6482,
      "olet": 6483,
      "04": 6484,
      "}{\\": 6485,
      "odinger": 6486,
      "Ga": 6487,
      "pus": 6488,
      "En": 6489,
      "Ġefforts": 6490,
      "Ġholograph": 6491,
      "Ġbeta": 6492,
      "Ġarri": 6493,
      "nihilation": 6494,
      "Ġsubstantially": 6495,
      "Ġadmits": 6496,
      "warz": 6497,
      "Pro": 6498,
      "Ġcompanion": 6499,
      "Ġattractive": 6500,
      "Ġactual": 6501,
      "36": 6502,
      "ĠBi": 6503,
      "prisingly": 6504,
      "Ġderivatives": 6505,
      "avier": 6506,
      "Ġhydrodynamic": 6507,
      "}_{-": 6508,
      "Ġeigenvalue": 6509,
      "ectors": 6510,
      "Ġexecution": 6511,
      "dex": 6512,
      "Ġdegener": 6513,
      "Xiv": 6514,
      "ĠColl": 6515,
      "ĠGW": 6516,
      "necess": 6517,
      "ĠSpace": 6518,
      "generalized": 6519,
      "derived": 6520,
      "Ġjointly": 6521,
      "ĠBut": 6522,
      "ung": 6523,
      "Ġcharges": 6524,
      "Ġsupports": 6525,
      "oltzmann": 6526,
      "aint": 6527,
      "modal": 6528,
      "Ġoscillator": 6529,
      "Ġsignificance": 6530,
      "oses": 6531,
      "Ġbursts": 6532,
      "Ġopposite": 6533,
      "Ġinvolve": 6534,
      "ajorana": 6535,
      "gas": 6536,
      "ĠCT": 6537,
      "iable": 6538,
      "Ġtwisted": 6539,
      "Ġinterstellar": 6540,
      "Ġmeta": 6541,
      "ona": 6542,
      "polarization": 6543,
      "initial": 6544,
      "lines": 6545,
      "Ġfluxes": 6546,
      "Ġagree": 6547,
      "coherent": 6548,
      "ositions": 6549,
      "techn": 6550,
      "theoretic": 6551,
      "Ġresponses": 6552,
      "theless": 6553,
      "Ġsphe": 6554,
      "Ġindependently": 6555,
      "Ġsal": 6556,
      "Ġlib": 6557,
      "Ġmesons": 6558,
      "simulation": 6559,
      "Ġproxim": 6560,
      "Ġbinding": 6561,
      "imer": 6562,
      "arting": 6563,
      "Ġvehicles": 6564,
      "ĠInte": 6565,
      "Ġfocuses": 6566,
      "Ġexponentially": 6567,
      "Ġstudents": 6568,
      "embed": 6569,
      "about": 6570,
      "ĠRev": 6571,
      "Ġgreatly": 6572,
      "Ġdecoding": 6573,
      "lesssim": 6574,
      "Ġsubspace": 6575,
      "Ġnewly": 6576,
      "transfer": 6577,
      "Ġplasm": 6578,
      "))": 6579,
      "Ġnumerous": 6580,
      "Ġinferred": 6581,
      "Ġelimin": 6582,
      "focus": 6583,
      "Ġshare": 6584,
      "Ġdownstream": 6585,
      "98": 6586,
      "cost": 6587,
      "ifur": 6588,
      "FM": 6589,
      "ĠSeveral": 6590,
      "Ġsuperconductors": 6591,
      "Ġdraw": 6592,
      "Ġvertical": 6593,
      "calculations": 6594,
      "BS": 6595,
      "ferm": 6596,
      "Mills": 6597,
      "Ġtrivial": 6598,
      "ubbard": 6599,
      "research": 6600,
      "Ġgenerator": 6601,
      "imal": 6602,
      "erc": 6603,
      "iss": 6604,
      "bula": 6605,
      "prove": 6606,
      "ĠRiemannian": 6607,
      "Ġadding": 6608,
      "ructures": 6609,
      "output": 6610,
      "Ġsimplic": 6611,
      "rarily": 6612,
      "Ġassem": 6613,
      "Ġvib": 6614,
      "ĠGalax": 6615,
      "convergence": 6616,
      "ender": 6617,
      "Ġvariants": 6618,
      "Ġcauses": 6619,
      "provides": 6620,
      "Ġmuon": 6621,
      "Ġoxygen": 6622,
      "Ġtrigg": 6623,
      "Ġdecisions": 6624,
      "electro": 6625,
      "Ġinstrument": 6626,
      "sect": 6627,
      "redshift": 6628,
      "ĠBesides": 6629,
      "violet": 6630,
      "adic": 6631,
      "prac": 6632,
      "TS": 6633,
      "Ġsemantics": 6634,
      "Ġscalable": 6635,
      "Ġversions": 6636,
      "Ġoverview": 6637,
      "ĠIts": 6638,
      "utive": 6639,
      "Ġ24": 6640,
      "ĠHence": 6641,
      "isons": 6642,
      "Ġdamping": 6643,
      "ailed": 6644,
      "black": 6645,
      "ĠWay": 6646,
      "Ġhttps": 6647,
      "Ġrepul": 6648,
      "ĠType": 6649,
      "Ġmorphology": 6650,
      "metic": 6651,
      "Ds": 6652,
      "introduce": 6653,
      "ĠRL": 6654,
      "ĠChern": 6655,
      "Ġbaselines": 6656,
      "Ġvehicle": 6657,
      "Ġverification": 6658,
      "Finally": 6659,
      "ĠCM": 6660,
      "Ġsilicon": 6661,
      "Ġexploiting": 6662,
      "Ġquick": 6663,
      "06": 6664,
      "Ġencoder": 6665,
      "Ġplatforms": 6666,
      "uple": 6667,
      "hing": 6668,
      "Ġspars": 6669,
      "mmetric": 6670,
      "developed": 6671,
      "Ġimply": 6672,
      "Ġsubgroup": 6673,
      "Ġzone": 6674,
      "ĠBrownian": 6675,
      "Ġday": 6676,
      "genit": 6677,
      "Cl": 6678,
      "antly": 6679,
      "Ġgeometries": 6680,
      "communication": 6681,
      "Ġbu": 6682,
      "Ġign": 6683,
      "Ġsubsequent": 6684,
      "osure": 6685,
      "rotron": 6686,
      "degree": 6687,
      "Ġgaps": 6688,
      "Ġrepresenting": 6689,
      "collision": 6690,
      "Ġconductance": 6691,
      "Ġleveraging": 6692,
      "lassical": 6693,
      "scalar": 6694,
      "Ġbit": 6695,
      "ĠData": 6696,
      "was": 6697,
      "Ġexponents": 6698,
      "ilson": 6699,
      "Ġrad": 6700,
      "Ġrelevance": 6701,
      "Ġgenus": 6702,
      "Ġrays": 6703,
      "Ġcounting": 6704,
      "oids": 6705,
      "Ġpc": 6706,
      "Ġport": 6707,
      "Ġmutual": 6708,
      "Ġcyclic": 6709,
      "ancial": 6710,
      "ĠSub": 6711,
      "ĠUnlike": 6712,
      "ris": 6713,
      "Ġindeed": 6714,
      "Ġdeviations": 6715,
      "01": 6716,
      "Ġcome": 6717,
      "$).": 6718,
      "Ġsuppressed": 6719,
      "Ġbehind": 6720,
      "eder": 6721,
      "Ġapplicability": 6722,
      "Ġnanop": 6723,
      "Ġfavor": 6724,
      "Ġpolymer": 6725,
      "rosso": 6726,
      "ifurc": 6727,
      "Ġsplit": 6728,
      "orth": 6729,
      "Ġincorporate": 6730,
      "Ġlosses": 6731,
      "ĠSuper": 6732,
      "chrotron": 6733,
      "Ġmm": 6734,
      "ryp": 6735,
      "Ġvulner": 6736,
      "presence": 6737,
      "Ġadditive": 6738,
      "umer": 6739,
      "ĠIa": 6740,
      "ai": 6741,
      "opf": 6742,
      "dots": 6743,
      "Ġdemonstrating": 6744,
      "Ġassessment": 6745,
      "ĠNP": 6746,
      "spatial": 6747,
      "Ġincorporating": 6748,
      "Ġstart": 6749,
      "iii": 6750,
      "Ġlifetime": 6751,
      "Ġcomplementary": 6752,
      "Ġgeneralizes": 6753,
      "GAN": 6754,
      "util": 6755,
      "Ġvary": 6756,
      "Ġpay": 6757,
      "Ġ90": 6758,
      "inent": 6759,
      "Ġattain": 6760,
      "Ġcreation": 6761,
      "pers": 6762,
      "umann": 6763,
      "grow": 6764,
      "istry": 6765,
      "agent": 6766,
      "sky": 6767,
      "ends": 6768,
      "icated": 6769,
      "PE": 6770,
      "luminosity": 6771,
      "ĠMilky": 6772,
      "Ġreasonable": 6773,
      "Ġexpensive": 6774,
      "Ġsurrounding": 6775,
      "Ġing": 6776,
      "Ġuniqueness": 6777,
      "Ġaccessible": 6778,
      "arbit": 6779,
      "images": 6780,
      "charg": 6781,
      "Ġminimize": 6782,
      "bos": 6783,
      "fast": 6784,
      "Ġpreserving": 6785,
      "Ġcomes": 6786,
      "Ġinsulator": 6787,
      "Ġinduce": 6788,
      "Ġconnectivity": 6789,
      "Ġstrengths": 6790,
      "Ġtrend": 6791,
      "bel": 6792,
      "Ġcone": 6793,
      "ĠMethod": 6794,
      "Ġaspect": 6795,
      "Ġacting": 6796,
      "appear": 6797,
      "Ġsharing": 6798,
      ")_": 6799,
      "correction": 6800,
      "gered": 6801,
      "Ġelectroweak": 6802,
      "labeled": 6803,
      "Ġhomology": 6804,
      "ource": 6805,
      "Ġtrust": 6806,
      "Ġfav": 6807,
      "Ġseem": 6808,
      "electronic": 6809,
      "Ġprompt": 6810,
      "ĠGe": 6811,
      "dimensions": 6812,
      "Ġexception": 6813,
      "Ġray": 6814,
      "ĠRiemann": 6815,
      "Wh": 6816,
      "Ġ21": 6817,
      "Ġdiffuse": 6818,
      "owski": 6819,
      "Ġfluctuation": 6820,
      "Ġparton": 6821,
      "Ġbig": 6822,
      "Ġcour": 6823,
      "Ġconjug": 6824,
      "97": 6825,
      "ouble": 6826,
      "$),": 6827,
      "Ġconsistently": 6828,
      "increasing": 6829,
      "Ġdiverg": 6830,
      "ĠAU": 6831,
      "jections": 6832,
      "Ġnecessarily": 6833,
      "Ġdate": 6834,
      "Ġblue": 6835,
      "tillation": 6836,
      "components": 6837,
      "($": 6838,
      "Ġ/": 6839,
      "Ġintu": 6840,
      "Ġbrane": 6841,
      "Ġgenerators": 6842,
      "precision": 6843,
      "ĠGeneral": 6844,
      "Ġresis": 6845,
      "Ġsuppression": 6846,
      "magnitude": 6847,
      "Mn": 6848,
      "Ġsecure": 6849,
      "Ġseems": 6850,
      "Ġfront": 6851,
      "Ġlearns": 6852,
      "mechanism": 6853,
      "ovi": 6854,
      "enes": 6855,
      "Ġfermionic": 6856,
      "invol": 6857,
      ")}": 6858,
      "Ġcounterparts": 6859,
      "Ġled": 6860,
      "ĠPer": 6861,
      "Ġcoarse": 6862,
      "Ġinnov": 6863,
      "Ġnavig": 6864,
      "volutional": 6865,
      "icacy": 6866,
      "CL": 6867,
      "RS": 6868,
      "ĠReg": 6869,
      "Ġremn": 6870,
      "require": 6871,
      "bilities": 6872,
      "Ġiron": 6873,
      "Ġdesigning": 6874,
      "Ġbenefit": 6875,
      "varying": 6876,
      "loud": 6877,
      "Ġprevent": 6878,
      "Ġrigorous": 6879,
      "host": 6880,
      "spl": 6881,
      "Ġplac": 6882,
      "variable": 6883,
      "Ġwritten": 6884,
      "patter": 6885,
      "singular": 6886,
      "AA": 6887,
      "Ġremaining": 6888,
      "Ġbosonic": 6889,
      "Ġfall": 6890,
      "will": 6891,
      "ĠHeisenberg": 6892,
      "Ġplate": 6893,
      "cases": 6894,
      "Ġtreated": 6895,
      "Ġdecreasing": 6896,
      "omin": 6897,
      "ĠHD": 6898,
      "stability": 6899,
      "ĠRaman": 6900,
      "ĠEach": 6901,
      "Ġdiameter": 6902,
      "Ġsuffer": 6903,
      "Ġinspired": 6904,
      "Ġonce": 6905,
      "Ni": 6906,
      "dataset": 6907,
      "measurement": 6908,
      "bles": 6909,
      "Ġusage": 6910,
      "Ġwavelengths": 6911,
      "Ġtrapped": 6912,
      "Ġsupersymmetry": 6913,
      "Ġinterfaces": 6914,
      "Ġcontroller": 6915,
      "34": 6916,
      "Here": 6917,
      "Ġparametri": 6918,
      "CDM": 6919,
      "ĠGPU": 6920,
      "otopy": 6921,
      "Ġvaluable": 6922,
      "ospheric": 6923,
      "Ġprimordial": 6924,
      "aching": 6925,
      "Res": 6926,
      "stochastic": 6927,
      "romagn": 6928,
      "cast": 6929,
      "ĠBH": 6930,
      "Ġpersonal": 6931,
      "Ġsegment": 6932,
      "Ġsubstrate": 6933,
      "pseud": 6934,
      "ked": 6935,
      "Ġprice": 6936,
      "Ġnever": 6937,
      "len": 6938,
      "transport": 6939,
      "support": 6940,
      "novel": 6941,
      "Ti": 6942,
      "GA": 6943,
      "target": 6944,
      "Ġconverges": 6945,
      "Ġinclusion": 6946,
      "Ġutilized": 6947,
      "^{(": 6948,
      "synthe": 6949,
      "armon": 6950,
      "operators": 6951,
      "Ġalone": 6952,
      "rossover": 6953,
      "Car": 6954,
      "load": 6955,
      "Ġoutputs": 6956,
      "\\%$": 6957,
      "ĠRel": 6958,
      "Ġsevere": 6959,
      "land": 6960,
      "ĠTheory": 6961,
      "Ġprimarily": 6962,
      "determined": 6963,
      "Ġcollect": 6964,
      "Ġproposal": 6965,
      "QA": 6966,
      "vin": 6967,
      "Ġauto": 6968,
      "statistical": 6969,
      "Ġquantity": 6970,
      "discussed": 6971,
      "Ġfinitely": 6972,
      "Ġquasars": 6973,
      "motion": 6974,
      "Ġprotein": 6975,
      "eigen": 6976,
      "Ġround": 6977,
      "correlated": 6978,
      "^-$": 6979,
      "Ġreplac": 6980,
      ".)": 6981,
      "quee": 6982,
      "usual": 6983,
      "Ġvic": 6984,
      "atest": 6985,
      "Ġcir": 6986,
      "ke": 6987,
      "tasks": 6988,
      "Ġevaluating": 6989,
      "prediction": 6990,
      "ashion": 6991,
      "Ġdivergence": 6992,
      "Ġastronom": 6993,
      "Moreover": 6994,
      "big": 6995,
      "ERT": 6996,
      "Ġtorsion": 6997,
      "Ġfalse": 6998,
      "Ġ60": 6999,
      "surfaces": 7000,
      "Ġshed": 7001,
      "ĠSpect": 7002,
      "+/-": 7003,
      "Ġproducing": 7004,
      "ĠMg": 7005,
      "ĠBo": 7006,
      "schild": 7007,
      "Ġstatus": 7008,
      "imeq": 7009,
      "micro": 7010,
      "soft": 7011,
      "simeq": 7012,
      "achines": 7013,
      "shown": 7014,
      "37": 7015,
      "ĠCal": 7016,
      "ĠDirichlet": 7017,
      "Ġinhomogeneous": 7018,
      "Ġfailure": 7019,
      "meas": 7020,
      "determin": 7021,
      "Ġhalos": 7022,
      "CH": 7023,
      "Ġexotic": 7024,
      "Ġ$(\\": 7025,
      "Ġemo": 7026,
      "cluded": 7027,
      "addition": 7028,
      "CNN": 7029,
      "Ġsuperfluid": 7030,
      "Ġlengths": 7031,
      "Phys": 7032,
      "Ġenvironmental": 7033,
      "bs": 7034,
      "Ġfidelity": 7035,
      "Ġnonlocal": 7036,
      "Ġguide": 7037,
      "estimation": 7038,
      "Ġlies": 7039,
      "investigated": 7040,
      "nucleon": 7041,
      "Ġfeasibility": 7042,
      "Ġfits": 7043,
      "Hamiltonian": 7044,
      "Ġreceived": 7045,
      "Ġdot": 7046,
      "Ġlatency": 7047,
      "III": 7048,
      "technique": 7049,
      "decomp": 7050,
      "Ġinitially": 7051,
      "agreement": 7052,
      "axis": 7053,
      "beam": 7054,
      "Ġarrays": 7055,
      "post": 7056,
      "Ġmanipulation": 7057,
      "Phi": 7058,
      "signal": 7059,
      "applied": 7060,
      "Ġhundred": 7061,
      "mid": 7062,
      "NO": 7063,
      "they": 7064,
      "Ġdrive": 7065,
      "odies": 7066,
      "Ġnearest": 7067,
      "ĠSitter": 7068,
      "Ġmesh": 7069,
      "Ġconc": 7070,
      "measured": 7071,
      "quis": 7072,
      "sts": 7073,
      "ognitive": 7074,
      "preserving": 7075,
      "string": 7076,
      "Ġconfinement": 7077,
      "65": 7078,
      "Ġmirror": 7079,
      "error": 7080,
      "elescopes": 7081,
      "Ġwar": 7082,
      "Ġworking": 7083,
      "exact": 7084,
      "Ġillustrated": 7085,
      "individual": 7086,
      "Ġauxiliary": 7087,
      "how": 7088,
      "Ġaffects": 7089,
      "central": 7090,
      "Ġprocedures": 7091,
      "Di": 7092,
      "decay": 7093,
      "deriv": 7094,
      "elves": 7095,
      "Ġonset": 7096,
      "ĠOver": 7097,
      "Ġmicroscopy": 7098,
      "modes": 7099,
      "Ġanalogue": 7100,
      "Ġinterior": 7101,
      "Ġattempt": 7102,
      "prime": 7103,
      "Ġadjac": 7104,
      "metallic": 7105,
      "ulting": 7106,
      "Ġstrictly": 7107,
      "hol": 7108,
      "ĠPrevious": 7109,
      "Ġten": 7110,
      "abi": 7111,
      "Ġrelease": 7112,
      "lind": 7113,
      "short": 7114,
      "Ġcontras": 7115,
      "may": 7116,
      "prim": 7117,
      "TL": 7118,
      "Ġaccomp": 7119,
      "predictions": 7120,
      "Ġfactorization": 7121,
      "Ġintegers": 7122,
      "Ġconsiderable": 7123,
      "Ġgeometrical": 7124,
      "Ġcomplicated": 7125,
      "Ġmoderate": 7126,
      "Ġrequirement": 7127,
      "Ġstrings": 7128,
      "umul": 7129,
      "Ġquoti": 7130,
      "Ġrepresentative": 7131,
      "85": 7132,
      "jectives": 7133,
      "Ġoutcome": 7134,
      "Ġrealize": 7135,
      "schitz": 7136,
      "Ġpercent": 7137,
      "ogue": 7138,
      "eper": 7139,
      "doped": 7140,
      "Ġelu": 7141,
      "Ġmolecule": 7142,
      "Ġadded": 7143,
      "Ġtwist": 7144,
      "Ġsuc": 7145,
      "ĠCu": 7146,
      "Ġintervals": 7147,
      "Ġtang": 7148,
      "Ġclean": 7149,
      "Ġduration": 7150,
      "valence": 7151,
      "Ġfill": 7152,
      "OD": 7153,
      "accurate": 7154,
      "Ġflav": 7155,
      "Ġimpurity": 7156,
      "Ġmicron": 7157,
      "ĠAmong": 7158,
      "Ġconsiders": 7159,
      "Ġexpand": 7160,
      "Ġcarrier": 7161,
      "planetary": 7162,
      "rone": 7163,
      "Ġdeployment": 7164,
      "etra": 7165,
      "nergy": 7166,
      "ession": 7167,
      "correlations": 7168,
      "Ġcounterpart": 7169,
      "Ġaddressed": 7170,
      "Ġfiltering": 7171,
      "ensively": 7172,
      "Ġpatients": 7173,
      "frame": 7174,
      "ogether": 7175,
      "fundamental": 7176,
      "ners": 7177,
      "ĠOr": 7178,
      "explain": 7179,
      "ipschitz": 7180,
      "Ġprelim": 7181,
      "equivalent": 7182,
      "Ġpreliminary": 7183,
      "Ġprojected": 7184,
      "Ġmig": 7185,
      "Ġsimplified": 7186,
      "Ġfinally": 7187,
      "Ġphenomenological": 7188,
      "Ġrandomly": 7189,
      "Ġdisordered": 7190,
      "GeV": 7191,
      "Ġextinction": 7192,
      "polarized": 7193,
      "Rs": 7194,
      "ĠMajorana": 7195,
      "population": 7196,
      "irable": 7197,
      "Ġundergo": 7198,
      "closed": 7199,
      "ĠBa": 7200,
      "Ġenerge": 7201,
      "Ġclar": 7202,
      "ĠDet": 7203,
      "Ġapplies": 7204,
      "Ġaccelerated": 7205,
      "Ġdial": 7206,
      "Ġamb": 7207,
      "Ġdro": 7208,
      "Ġgates": 7209,
      "norm": 7210,
      "Ġbottom": 7211,
      "shap": 7212,
      "ĠTheir": 7213,
      "entropy": 7214,
      "setting": 7215,
      "Ġconcerns": 7216,
      "Ġrelate": 7217,
      "phonon": 7218,
      "unov": 7219,
      "IMO": 7220,
      "Ġiteration": 7221,
      "Ġsupernovae": 7222,
      "element": 7223,
      "rug": 7224,
      "Ġobstac": 7225,
      "molecular": 7226,
      "Ġrevis": 7227,
      "Ġindices": 7228,
      "lower": 7229,
      "Ġmaintaining": 7230,
      "ĠAcc": 7231,
      "expansion": 7232,
      "Ġteam": 7233,
      "Ġvalidated": 7234,
      "Ġyear": 7235,
      "uted": 7236,
      "29": 7237,
      "Ġattributes": 7238,
      "osities": 7239,
      "Ġtiming": 7240,
      "ĠAut": 7241,
      "Ġkinds": 7242,
      "07": 7243,
      "Ġcalib": 7244,
      "otent": 7245,
      "$-$": 7246,
      "Ġdistortion": 7247,
      "Ġcat": 7248,
      "Ġscores": 7249,
      "clic": 7250,
      "38": 7251,
      "Ġdefining": 7252,
      "explo": 7253,
      "sensitive": 7254,
      "Ġintelligence": 7255,
      "Ġdescent": 7256,
      "principles": 7257,
      "Ġkinematics": 7258,
      "Ġmanifest": 7259,
      "integral": 7260,
      "Ġli": 7261,
      "Ġaddresses": 7262,
      "biased": 7263,
      "SF": 7264,
      "ĠCompared": 7265,
      "ĠNext": 7266,
      ")]": 7267,
      "Ġla": 7268,
      "Ġassociation": 7269,
      "MP": 7270,
      "atomic": 7271,
      "link": 7272,
      "itions": 7273,
      "Ġ.": 7274,
      "Ġevaluations": 7275,
      "structured": 7276,
      "clusters": 7277,
      "Ġtriple": 7278,
      "uter": 7279,
      "LC": 7280,
      "Ġpenal": 7281,
      "asymptotic": 7282,
      "ĠHy": 7283,
      "ford": 7284,
      "ervo": 7285,
      "anach": 7286,
      "human": 7287,
      "Ġambi": 7288,
      "Ġconsideration": 7289,
      "tle": 7290,
      "Ġfilters": 7291,
      "Ġexperi": 7292,
      "allows": 7293,
      "Ġmergers": 7294,
      "Ġverified": 7295,
      "48": 7296,
      "Ġinform": 7297,
      "pressure": 7298,
      "eculi": 7299,
      "altern": 7300,
      "magnet": 7301,
      "weighted": 7302,
      "ervoir": 7303,
      "Ġparabolic": 7304,
      "Ġresistance": 7305,
      "rig": 7306,
      "ĠKerr": 7307,
      "Ġminor": 7308,
      "galaxy": 7309,
      "pp": 7310,
      "Ġinduces": 7311,
      "Ġcellular": 7312,
      "exhibit": 7313,
      "Ġhumans": 7314,
      "stationary": 7315,
      "occur": 7316,
      "semi": 7317,
      "itron": 7318,
      "simultaneous": 7319,
      "Ġsuperconductor": 7320,
      "De": 7321,
      "Ġkernels": 7322,
      "Ġdecoupl": 7323,
      "Ġvortices": 7324,
      "RF": 7325,
      "trac": 7326,
      "Ġsymbol": 7327,
      "Ġdecades": 7328,
      "ĠGalaxy": 7329,
      "feature": 7330,
      "<\\": 7331,
      "ĠNi": 7332,
      "Ġexplosion": 7333,
      "oura": 7334,
      "sources": 7335,
      "ovian": 7336,
      "eros": 7337,
      "Ġchoices": 7338,
      "Ġoptics": 7339,
      "same": 7340,
      "BC": 7341,
      "Ġviol": 7342,
      "mill": 7343,
      "Ġsusceptibility": 7344,
      "Ġalle": 7345,
      "teness": 7346,
      "stra": 7347,
      "Ġbegin": 7348,
      "STM": 7349,
      "Ġsoliton": 7350,
      "GL": 7351,
      "idi": 7352,
      "ldots": 7353,
      "Ġaccompan": 7354,
      "Ġarith": 7355,
      "RO": 7356,
      "Ġtends": 7357,
      "Ġholographic": 7358,
      "Ġdifficulty": 7359,
      "ĠVari": 7360,
      "Le": 7361,
      "Ġinelastic": 7362,
      "resulting": 7363,
      "depth": 7364,
      "Ġconverge": 7365,
      "Ġuntil": 7366,
      "Ġsparsity": 7367,
      "LLMs": 7368,
      "Ġinsp": 7369,
      "Ġmal": 7370,
      "ĠGraph": 7371,
      "Ġresolve": 7372,
      "Ġdevelopments": 7373,
      "Ġaccept": 7374,
      "Ġpeculi": 7375,
      "infinite": 7376,
      "Bi": 7377,
      "dominated": 7378,
      "orough": 7379,
      "Ġplus": 7380,
      "Ġhim": 7381,
      "Ġproperly": 7382,
      "ented": 7383,
      "Ġ$$": 7384,
      "entanglement": 7385,
      "Ġhapp": 7386,
      "amond": 7387,
      "Ġnano": 7388,
      "Ġmultivariate": 7389,
      "Ġsubsets": 7390,
      "Ġphysically": 7391,
      "FL": 7392,
      "overline": 7393,
      "Ġmild": 7394,
      "Ġhead": 7395,
      "Ġflexibility": 7396,
      "Ġdivid": 7397,
      "Ġcaptured": 7398,
      "ĠSm": 7399,
      "Ġlandsc": 7400,
      "Ab": 7401,
      "degenerate": 7402,
      "auss": 7403,
      "sf": 7404,
      "clear": 7405,
      "lein": 7406,
      "Ġcombinations": 7407,
      "Ge": 7408,
      "Ġperpendicular": 7409,
      "otes": 7410,
      "Ġempirically": 7411,
      "Ġmarginal": 7412,
      "Ġtrends": 7413,
      "55": 7414,
      "Ġobserving": 7415,
      "Ġattemp": 7416,
      "natural": 7417,
      "Ġprogenit": 7418,
      "iclassical": 7419,
      "glish": 7420,
      "relevant": 7421,
      "Ġice": 7422,
      "Ġthermodynamics": 7423,
      "Ġgrains": 7424,
      "Ġbiases": 7425,
      "Ġmus": 7426,
      "Ġnet": 7427,
      "peak": 7428,
      "neural": 7429,
      "ahler": 7430,
      "Ġcontin": 7431,
      "jet": 7432,
      "Ġwavegu": 7433,
      "Ġarbitrarily": 7434,
      "studies": 7435,
      "Ġminimizing": 7436,
      "ĠSL": 7437,
      "ĠLLM": 7438,
      "speed": 7439,
      "Ġevolving": 7440,
      "\\'{": 7441,
      "Ġscreening": 7442,
      "Ġinteract": 7443,
      "adow": 7444,
      "global": 7445,
      "neutrino": 7446,
      "minimal": 7447,
      "run": 7448,
      "Ġqualitatively": 7449,
      "apunov": 7450,
      "ederated": 7451,
      "rency": 7452,
      "ĠInstead": 7453,
      "ribed": 7454,
      "ubes": 7455,
      "Ġpor": 7456,
      "Ġfairness": 7457,
      "Ġattributed": 7458,
      "extension": 7459,
      "Ġthroughout": 7460,
      "introduced": 7461,
      "Ġwal": 7462,
      "Ġsemigroup": 7463,
      "prof": 7464,
      "scheme": 7465,
      "Ġbundles": 7466,
      "Ġactivities": 7467,
      "Ġthought": 7468,
      "ori": 7469,
      "ried": 7470,
      "Ar": 7471,
      "Ġaxial": 7472,
      "fluctuations": 7473,
      "scaling": 7474,
      "ĠExisting": 7475,
      "Ġnegl": 7476,
      "BM": 7477,
      "itu": 7478,
      "ailability": 7479,
      "Ġeccentric": 7480,
      "Ġinver": 7481,
      "Ġranges": 7482,
      "difference": 7483,
      "Ġenvelope": 7484,
      "dation": 7485,
      "Ġoptically": 7486,
      "unit": 7487,
      "breaking": 7488,
      "39": 7489,
      "Ġanomalies": 7490,
      "Ġprototype": 7491,
      "Ġefficacy": 7492,
      "spectra": 7493,
      "examples": 7494,
      "chemical": 7495,
      "heter": 7496,
      "discrete": 7497,
      "Ġfinancial": 7498,
      "ynamic": 7499,
      "defin": 7500,
      "atches": 7501,
      "Ġincomp": 7502,
      "Ġvalidation": 7503,
      "ĠKe": 7504,
      "Ġthroughput": 7505,
      "Ġreceiver": 7506,
      "oling": 7507,
      "Ġactivation": 7508,
      "average": 7509,
      "volume": 7510,
      "additional": 7511,
      "eter": 7512,
      "iction": 7513,
      "Pb": 7514,
      "hedral": 7515,
      "AG": 7516,
      "Ġaxion": 7517,
      "four": 7518,
      "after": 7519,
      "Ġalgorithmic": 7520,
      "report": 7521,
      "Ġretain": 7522,
      "Ġexo": 7523,
      "lor": 7524,
      "By": 7525,
      "gradient": 7526,
      "Ġmaximize": 7527,
      "Ġoverhead": 7528,
      "Ġcaptures": 7529,
      "irms": 7530,
      "ĠModels": 7531,
      "ym": 7532,
      "rastructure": 7533,
      "...": 7534,
      "Ġdetermines": 7535,
      "ĠField": 7536,
      "oS": 7537,
      "Ġpromp": 7538,
      "objects": 7539,
      "care": 7540,
      "^+$": 7541,
      "benchmark": 7542,
      "Ġexcept": 7543,
      "characteristics": 7544,
      "ĠDifferen": 7545,
      "Ġminimization": 7546,
      "Ġbipartite": 7547,
      "reve": 7548,
      "prom": 7549,
      "Ġspan": 7550,
      "Ġdeformations": 7551,
      "Ġ$|": 7552,
      "Ġcompounds": 7553,
      "ĠHigh": 7554,
      "Ġflare": 7555,
      "regions": 7556,
      "Ġpowers": 7557,
      "Ġingre": 7558,
      "varphi": 7559,
      "Ġpin": 7560,
      "gate": 7561,
      "metal": 7562,
      "Ġunseen": 7563,
      "preced": 7564,
      "ratio": 7565,
      "Ġstim": 7566,
      "ĠLanguage": 7567,
      "Ġsums": 7568,
      "ighter": 7569,
      "binary": 7570,
      "Ġaugmentation": 7571,
      "ĠCH": 7572,
      "rite": 7573,
      "vention": 7574,
      "Ġspanning": 7575,
      "Ġposes": 7576,
      "Ġsoci": 7577,
      "SY": 7578,
      "ĠMaxwell": 7579,
      "pub": 7580,
      "har": 7581,
      "ĠInternet": 7582,
      "open": 7583,
      "ae": 7584,
      "Ġele": 7585,
      "tensor": 7586,
      "Ġviewed": 7587,
      "Ġitems": 7588,
      "Ġmitigate": 7589,
      "ĠAc": 7590,
      "ĠInt": 7591,
      "orical": 7592,
      "ultic": 7593,
      "Ġadopt": 7594,
      ")}$": 7595,
      "ĠChe": 7596,
      "decre": 7597,
      "Ġbifurc": 7598,
      "what": 7599,
      "Ġindirect": 7600,
      "Ġpiece": 7601,
      "Im": 7602,
      "ita": 7603,
      "colation": 7604,
      "Ġfractions": 7605,
      "Ġbus": 7606,
      "Ġframeworks": 7607,
      "Ġleverages": 7608,
      "aver": 7609,
      "ĠSw": 7610,
      "Ġscatter": 7611,
      "determine": 7612,
      "Ġarrang": 7613,
      "flux": 7614,
      "ĠLaplacian": 7615,
      "amplitude": 7616,
      "Ġscheduling": 7617,
      "ĠGra": 7618,
      "plas": 7619,
      "ips": 7620,
      "Ġcreating": 7621,
      "Is": 7622,
      "Ġincl": 7623,
      "Ġmultimodal": 7624,
      "ĠWilson": 7625,
      "evertheless": 7626,
      "ostructures": 7627,
      "Mark": 7628,
      "itch": 7629,
      "Ġemerged": 7630,
      "Ġproving": 7631,
      "Ġaccum": 7632,
      "AE": 7633,
      "outperform": 7634,
      "Ġcrossover": 7635,
      "Ġcompetition": 7636,
      "articles": 7637,
      "ĠMany": 7638,
      "changes": 7639,
      "lock": 7640,
      "Ġutilizes": 7641,
      "generalization": 7642,
      "efficients": 7643,
      "las": 7644,
      "ĠSC": 7645,
      "illust": 7646,
      "sampling": 7647,
      "ambigu": 7648,
      "established": 7649,
      "Ġmonop": 7650,
      "Ġadmit": 7651,
      "Ġrecurrent": 7652,
      "elled": 7653,
      "Ġcalculating": 7654,
      "ĠDR": 7655,
      "expression": 7656,
      "Ġergodic": 7657,
      "estimate": 7658,
      "Ġopens": 7659,
      "ĠMn": 7660,
      "analytic": 7661,
      "Ġnotions": 7662,
      "orbital": 7663,
      "exponential": 7664,
      "Ġquadru": 7665,
      "ĠJacob": 7666,
      "ĠPy": 7667,
      "often": 7668,
      "turing": 7669,
      "\\\"{": 7670,
      "ĠBell": 7671,
      "threshold": 7672,
      "Ġquantized": 7673,
      "buil": 7674,
      "Ġexpanding": 7675,
      "Ġneu": 7676,
      "Ġmotiv": 7677,
      "Ġadapted": 7678,
      "ouse": 7679,
      "versible": 7680,
      "igner": 7681,
      "Ġamounts": 7682,
      "Ġprivate": 7683,
      "ĠNon": 7684,
      "Ġtele": 7685,
      "astro": 7686,
      "Ġcontextual": 7687,
      "ĠAR": 7688,
      "disper": 7689,
      "Stokes": 7690,
      "textbf": 7691,
      "Bs": 7692,
      "ĠCOVID": 7693,
      "Ġquantitatively": 7694,
      "Ġtopics": 7695,
      "Ġsolitons": 7696,
      "OR": 7697,
      "during": 7698,
      "pect": 7699,
      "Ġsole": 7700,
      "Ġpulsars": 7701,
      "ĠCa": 7702,
      "advant": 7703,
      "ker": 7704,
      "ancies": 7705,
      "Ġremote": 7706,
      "counter": 7707,
      "Given": 7708,
      "Ġphon": 7709,
      "Ġdid": 7710,
      "zes": 7711,
      "ĠDis": 7712,
      "ĠMe": 7713,
      "Ġiniti": 7714,
      "adily": 7715,
      "Ġbur": 7716,
      "oseph": 7717,
      "Ġquasar": 7718,
      "cosmological": 7719,
      "Ġequipped": 7720,
      "Ġenhancing": 7721,
      "rangle": 7722,
      "Ġambient": 7723,
      "sight": 7724,
      "46": 7725,
      "Ġsubstit": 7726,
      "Ġartif": 7727,
      "Ġambigu": 7728,
      "cessive": 7729,
      "---": 7730,
      "Ġcompac": 7731,
      "GD": 7732,
      "Ġcovariant": 7733,
      "atil": 7734,
      "Ġdiscrepancy": 7735,
      "Ġannihilation": 7736,
      "those": 7737,
      "issue": 7738,
      "Ġsupergravity": 7739,
      "uge": 7740,
      "Ġpackage": 7741,
      "ĠCL": 7742,
      "roelectric": 7743,
      "}^{\\": 7744,
      "Ġbra": 7745,
      "quisition": 7746,
      "gauge": 7747,
      "mselves": 7748,
      "Ġsinglet": 7749,
      "Ġglobular": 7750,
      "Ġmessage": 7751,
      "cra": 7752,
      "roid": 7753,
      "ĠCombin": 7754,
      "andom": 7755,
      "Ġdissipative": 7756,
      "ynthe": 7757,
      "icci": 7758,
      "ball": 7759,
      "deep": 7760,
      "response": 7761,
      "cles": 7762,
      "machine": 7763,
      "Ġfunct": 7764,
      "Ġcrow": 7765,
      "Ġcollaboration": 7766,
      "Ġnit": 7767,
      "Ġ%": 7768,
      "oriented": 7769,
      "Ġshocks": 7770,
      "conc": 7771,
      "ĠTheorem": 7772,
      "Ġwarm": 7773,
      "variables": 7774,
      "neutron": 7775,
      "Ġhomotopy": 7776,
      "sequences": 7777,
      "ĠBoltzmann": 7778,
      "Ġevolve": 7779,
      "selection": 7780,
      "ĠIII": 7781,
      "coefficients": 7782,
      "success": 7783,
      "amely": 7784,
      "pur": 7785,
      "QCD": 7786,
      "Ġcoming": 7787,
      "Ġhelium": 7788,
      "fitting": 7789,
      "Ġnu": 7790,
      "Ġnegligible": 7791,
      "program": 7792,
      "perfect": 7793,
      "distributed": 7794,
      "cid": 7795,
      "Ġholomorphic": 7796,
      "bul": 7797,
      "Ġmer": 7798,
      "arbitrary": 7799,
      "Ġperception": 7800,
      "Multi": 7801,
      "ifting": 7802,
      "Ġtruth": 7803,
      "Ġperson": 7804,
      "effectiveness": 7805,
      "Ġvolum": 7806,
      "attered": 7807,
      "Vs": 7808,
      "Ġvalence": 7809,
      "Un": 7810,
      "ĠObservatory": 7811,
      "Ġextrap": 7812,
      "ĠSc": 7813,
      "Ġscanning": 7814,
      "olds": 7815,
      "Ġemploys": 7816,
      "Ġentities": 7817,
      "Ġbath": 7818,
      "TA": 7819,
      "roll": 7820,
      "Ġsaturation": 7821,
      "09": 7822,
      "Ġarithmetic": 7823,
      "Ġjus": 7824,
      "Ġoutburst": 7825,
      "were": 7826,
      "glu": 7827,
      "Ġwalls": 7828,
      "Ġextensively": 7829,
      "Ġrender": 7830,
      "eq": 7831,
      "Ġshor": 7832,
      "categor": 7833,
      "Ġcalculus": 7834,
      "warzschild": 7835,
      "situ": 7836,
      "Ġcancer": 7837,
      "Ġhelps": 7838,
      "ĠSimilar": 7839,
      "Ġdisturb": 7840,
      "Ġincident": 7841,
      "relationship": 7842,
      "Ġfilling": 7843,
      "conformal": 7844,
      "ĠWithin": 7845,
      "Ġmillion": 7846,
      "constructed": 7847,
      "Ġparticipants": 7848,
      "olev": 7849,
      "described": 7850,
      "BA": 7851,
      "Ġoptimizing": 7852,
      "visual": 7853,
      "Quantum": 7854,
      "systematic": 7855,
      "precedented": 7856,
      "Ġprominent": 7857,
      "caus": 7858,
      "combination": 7859,
      "GM": 7860,
      "Ġtom": 7861,
      "DC": 7862,
      "Ġgains": 7863,
      "cales": 7864,
      "Ġclassifiers": 7865,
      "ubiqu": 7866,
      "ondo": 7867,
      "Ġvaries": 7868,
      "Ġ(~": 7869,
      "Ġroughly": 7870,
      "Ġstrip": 7871,
      "Ġrecommendation": 7872,
      "Ġbases": 7873,
      "Ġdig": 7874,
      "Ts": 7875,
      "osephson": 7876,
      "bec": 7877,
      "Ġallevi": 7878,
      "dark": 7879,
      "rass": 7880,
      "Ġweaker": 7881,
      "While": 7882,
      "Ġcod": 7883,
      "Ġcolors": 7884,
      "objective": 7885,
      "ĠBanach": 7886,
      "ĠHopf": 7887,
      "Ġfashion": 7888,
      "EG": 7889,
      "pack": 7890,
      "Ġgeodesic": 7891,
      "Ġbring": 7892,
      "Ġlaboratory": 7893,
      "Ġmodifications": 7894,
      "Ġsemiconductor": 7895,
      "extended": 7896,
      "sed": 7897,
      "Ġuniversality": 7898,
      "Ġquickly": 7899,
      "plus": 7900,
      "atile": 7901,
      "urban": 7902,
      "ĠCompton": 7903,
      "Ġdependencies": 7904,
      "Ġaggregation": 7905,
      "Ġexploring": 7906,
      "Ġ95": 7907,
      "Ġstyle": 7908,
      "Ġcommunications": 7909,
      "anisot": 7910,
      "ĠPa": 7911,
      "Ġeight": 7912,
      "Ġtempl": 7913,
      "ossible": 7914,
      "Ġcontained": 7915,
      "apor": 7916,
      "Ġcenters": 7917,
      "Ġgrows": 7918,
      "description": 7919,
      "literature": 7920,
      "covered": 7921,
      "oil": 7922,
      "atility": 7923,
      "Ġcompens": 7924,
      "lepton": 7925,
      "Ġcontinuously": 7926,
      "Ġimplementations": 7927,
      "Ġforecasting": 7928,
      "obolev": 7929,
      "configuration": 7930,
      "Ġnebula": 7931,
      "Ġneighborhood": 7932,
      "Ġsynchrotron": 7933,
      "FS": 7934,
      "ois": 7935,
      "inkowski": 7936,
      "ille": 7937,
      "strongly": 7938,
      "Ġintegrating": 7939,
      "xy": 7940,
      "Ġ80": 7941,
      "architecture": 7942,
      "Ġnonzero": 7943,
      "parity": 7944,
      "ĠDNA": 7945,
      "Ġskew": 7946,
      "Ġvicinity": 7947,
      "liquid": 7948,
      "Ġsatisfied": 7949,
      "fit": 7950,
      "Ġcard": 7951,
      "Ġtable": 7952,
      "Ġ$[": 7953,
      "Ġ300": 7954,
      "Ġgoverned": 7955,
      "del": 7956,
      "dra": 7957,
      "veloper": 7958,
      "Ġsolver": 7959,
      "Ġseven": 7960,
      "never": 7961,
      "PR": 7962,
      "Ġtriang": 7963,
      "Ġvs": 7964,
      "relative": 7965,
      "Ġemerge": 7966,
      "ĠNeumann": 7967,
      "Ġcrossing": 7968,
      "ĠMyr": 7969,
      "thon": 7970,
      "Ġlie": 7971,
      "oelectric": 7972,
      "development": 7973,
      "chy": 7974,
      "classes": 7975,
      "Ġseed": 7976,
      "nuclear": 7977,
      "ements": 7978,
      "color": 7979,
      "formulation": 7980,
      "isher": 7981,
      "ĠIoT": 7982,
      "Ġimposed": 7983,
      "Ġclassified": 7984,
      "index": 7985,
      "Ġplaced": 7986,
      "encoder": 7987,
      "Ġscalability": 7988,
      "Ġinstabilities": 7989,
      "concent": 7990,
      "plays": 7991,
      "oders": 7992,
      "ĠSky": 7993,
      "Ġsimpler": 7994,
      "Ġcovers": 7995,
      "ha": 7996,
      "Ġdescriptions": 7997,
      "Deep": 7998,
      "superconducting": 7999,
      "ĠTransformer": 8000,
      "omer": 8001,
      "Ġdecoherence": 8002,
      "location": 8003,
      "enhanced": 8004,
      "ĠBecause": 8005,
      "universal": 8006,
      "ĠMC": 8007,
      "Ġcontexts": 8008,
      "Ġbridge": 8009,
      "Ġexplanations": 8010,
      "board": 8011,
      "implementation": 8012,
      "identified": 8013,
      "interest": 8014,
      "consistency": 8015,
      "icial": 8016,
      "Ġobjectives": 8017,
      "propagation": 8018,
      "Ġinfinitely": 8019,
      "asons": 8020,
      "Ġoccurrence": 8021,
      "Ġcarefully": 8022,
      "NI": 8023,
      "Ġconclusion": 8024,
      "Ġincorporates": 8025,
      "writ": 8026,
      "Ġinterpolation": 8027,
      "suggest": 8028,
      "Ġactually": 8029,
      "enched": 8030,
      "Be": 8031,
      "Ġpropagating": 8032,
      "Ġcryp": 8033,
      "example": 8034,
      "amin": 8035,
      "Ġda": 8036,
      "Ġisomorphic": 8037,
      "planets": 8038,
      "Ġcourse": 8039,
      "Ġroad": 8040,
      "versely": 8041,
      "Ġappe": 8042,
      "Ġsupporting": 8043,
      "Ġaligned": 8044,
      "bb": 8045,
      "Ġdivis": 8046,
      "lingual": 8047,
      "onomy": 8048,
      "Ġbud": 8049,
      "Ġemitted": 8050,
      "Ġoriented": 8051,
      "cut": 8052,
      "olean": 8053,
      "Ġcircle": 8054,
      "Ġconduction": 8055,
      "Ġcontrolling": 8056,
      "Ġfriction": 8057,
      "life": 8058,
      "solar": 8059,
      "monot": 8060,
      "itous": 8061,
      "Ġmaster": 8062,
      "vation": 8063,
      "47": 8064,
      "Ġdegeneracy": 8065,
      "Ġillumin": 8066,
      "fermion": 8067,
      "Ġyielding": 8068,
      "Ġfaint": 8069,
      "tiff": 8070,
      "evaluation": 8071,
      "Ġsquee": 8072,
      "Ġcomplexes": 8073,
      "Ġidentities": 8074,
      "Ġstraightforward": 8075,
      "geometry": 8076,
      "Ġpatient": 8077,
      "titions": 8078,
      "Ġdistant": 8079,
      "special": 8080,
      "ano": 8081,
      "ĠGo": 8082,
      "Ġtract": 8083,
      "ĠConsequently": 8084,
      "Ġbodies": 8085,
      "ĠNa": 8086,
      "SSM": 8087,
      "ĠCor": 8088,
      "oting": 8089,
      "Ġinjection": 8090,
      "Ġthorough": 8091,
      "ulates": 8092,
      "samples": 8093,
      "water": 8094,
      "ructive": 8095,
      "Ġstatistically": 8096,
      "Ġserver": 8097,
      "Ġviscous": 8098,
      "sivity": 8099,
      "Ġconstructions": 8100,
      "Ġemphasis": 8101,
      "describe": 8102,
      "une": 8103,
      "Ġconsensus": 8104,
      "Ġspecified": 8105,
      "Ġcorrectly": 8106,
      "Ġindustry": 8107,
      "Ġnews": 8108,
      "ropies": 8109,
      "need": 8110,
      "Ġcorpus": 8111,
      "zeta": 8112,
      "Ġprep": 8113,
      "Ġtelescopes": 8114,
      "incorpor": 8115,
      "ger": 8116,
      "Ġdisru": 8117,
      "Ġcurved": 8118,
      "Ġfault": 8119,
      "search": 8120,
      "print": 8121,
      "double": 8122,
      "predict": 8123,
      "ploying": 8124,
      "morph": 8125,
      "Ġluminous": 8126,
      "Ġpairwise": 8127,
      "Ġnormalized": 8128,
      "Ġmel": 8129,
      "Ġcompletion": 8130,
      "Ġcolour": 8131,
      "Ġeduc": 8132,
      "maximum": 8133,
      "Ġacts": 8134,
      "Ġwidths": 8135,
      "Ġglobally": 8136,
      "event": 8137,
      "Ġnoncommutative": 8138,
      "ĠSolar": 8139,
      "urable": 8140,
      "reduction": 8141,
      "ĠMic": 8142,
      "utter": 8143,
      "Ġcoronal": 8144,
      "Ġpreserve": 8145,
      "renormal": 8146,
      "Ġoperational": 8147,
      "square": 8148,
      "Ġdecoder": 8149,
      "Newton": 8150,
      "Ġensembles": 8151,
      "reconstruction": 8152,
      "Ġmachines": 8153,
      "500": 8154,
      "recently": 8155,
      "EL": 8156,
      "modules": 8157,
      "Ġmomenta": 8158,
      "...,": 8159,
      "izability": 8160,
      "Ġsimplest": 8161,
      "itters": 8162,
      "PP": 8163,
      "Ġdimensionality": 8164,
      "Ġlinked": 8165,
      "Ġtransformer": 8166,
      "Ġconsiderably": 8167,
      "ĠLyapunov": 8168,
      "BN": 8169,
      "Ġrecorded": 8170,
      "accre": 8171,
      "derive": 8172,
      "fixed": 8173,
      "ĠHubbard": 8174,
      "ausible": 8175,
      "previously": 8176,
      "horizon": 8177,
      "tunately": 8178,
      "Ġdedicated": 8179,
      "Ġachievable": 8180,
      "auchy": 8181,
      "ĠArray": 8182,
      "Ġopin": 8183,
      "uzzy": 8184,
      "ĠMean": 8185,
      "ĠGyr": 8186,
      "ĠAnalysis": 8187,
      "Ġluminosities": 8188,
      "likely": 8189,
      "Ġconcrete": 8190,
      "Ġsmallest": 8191,
      "mental": 8192,
      "Ġbiom": 8193,
      "Ġpassive": 8194,
      "strength": 8195,
      "Ġnonlinearity": 8196,
      "analytical": 8197,
      "balance": 8198,
      "Ġresistivity": 8199,
      "ĠEr": 8200,
      "Ġpeculiar": 8201,
      "future": 8202,
      "+-": 8203,
      "imate": 8204,
      "Ġaccounts": 8205,
      "Ġreconstructed": 8206,
      "Ġotherwise": 8207,
      "restingly": 8208,
      "disk": 8209,
      "Ġfrequently": 8210,
      "ĠChand": 8211,
      "scales": 8212,
      "mbolic": 8213,
      "stain": 8214,
      "oppler": 8215,
      "Ġcomparisons": 8216,
      "Ġreservoir": 8217,
      "Ġranking": 8218,
      "anomal": 8219,
      "Ġcognitive": 8220,
      "Ġcharm": 8221,
      "Ġmultiplicity": 8222,
      "Ġblow": 8223,
      "Ġdeployed": 8224,
      "dissip": 8225,
      "entralized": 8226,
      "Ġviable": 8227,
      "GS": 8228,
      "Ġads": 8229,
      "necessary": 8230,
      "exchange": 8231,
      "ounced": 8232,
      "Ġversus": 8233,
      "Ġopportunities": 8234,
      "lights": 8235,
      "Ġleak": 8236,
      "Ġenhances": 8237,
      "Ġcollider": 8238,
      "Ġextremal": 8239,
      "ĠEven": 8240,
      "ĠCas": 8241,
      "ued": 8242,
      "Ġhome": 8243,
      "identify": 8244,
      "extract": 8245,
      "Ġslic": 8246,
      "oking": 8247,
      "Ġinstruction": 8248,
      "estimates": 8249,
      "Ġannotations": 8250,
      "better": 8251,
      "ospin": 8252,
      "Fermi": 8253,
      "Ġever": 8254,
      "Ġreached": 8255,
      "Ġ70": 8256,
      "ĠAssuming": 8257,
      "Ġgoes": 8258,
      "Ġtrig": 8259,
      "Ġcylind": 8260,
      "Ġcli": 8261,
      "Ġlandscape": 8262,
      "ĠFL": 8263,
      "Ġscenes": 8264,
      "herically": 8265,
      "ask": 8266,
      "OC": 8267,
      "Ġsubgroups": 8268,
      "Ġantic": 8269,
      "ĠSNe": 8270,
      "Ġcharacterizing": 8271,
      "Ġintegrate": 8272,
      "contrast": 8273,
      "indic": 8274,
      "influ": 8275,
      "ĠNN": 8276,
      "Higgs": 8277,
      "challenging": 8278,
      "Ġade": 8279,
      "Ġproximity": 8280,
      "Ġexciton": 8281,
      "56": 8282,
      "\\{": 8283,
      "Ġmodalities": 8284,
      "VM": 8285,
      "outh": 8286,
      "Ġthreat": 8287,
      "Ġmining": 8288,
      "Ob": 8289,
      "Ġarm": 8290,
      "ilarities": 8291,
      "empir": 8292,
      "Sr": 8293,
      "Ġrobotic": 8294,
      "oscopic": 8295,
      "oscale": 8296,
      "43": 8297,
      "abund": 8298,
      "ĠImage": 8299,
      "(-": 8300,
      "mentioned": 8301,
      "relax": 8302,
      "Ġthous": 8303,
      "Ġencoded": 8304,
      "licity": 8305,
      "Ġbiased": 8306,
      "Ġsynchronization": 8307,
      "around": 8308,
      "transmission": 8309,
      "Ġsafe": 8310,
      "ultra": 8311,
      "Ġlogical": 8312,
      "Ġcounts": 8313,
      "ĠSo": 8314,
      "Ġdiagnosis": 8315,
      "Ġsolely": 8316,
      "foli": 8317,
      "Ġinvestigations": 8318,
      "proced": 8319,
      "Ġrespective": 8320,
      "Lo": 8321,
      "Ġgoals": 8322,
      "Ġindustrial": 8323,
      "grid": 8324,
      "agnetism": 8325,
      "block": 8326,
      "poor": 8327,
      "riers": 8328,
      "memory": 8329,
      "amagnetic": 8330,
      "Ġfewer": 8331,
      "Ġhours": 8332,
      "restim": 8333,
      "matically": 8334,
      "fusion": 8335,
      "Ġclassic": 8336,
      "^+\\": 8337,
      "iner": 8338,
      "elements": 8339,
      "Ġgraded": 8340,
      "Ġmeaningful": 8341,
      "Ġsolvable": 8342,
      "ĠSr": 8343,
      "Ġtry": 8344,
      "article": 8345,
      "Ġanswers": 8346,
      "Ġultim": 8347,
      "Ġbelieve": 8348,
      "Based": 8349,
      "Ġfunctionals": 8350,
      "Ġupdates": 8351,
      "Ġplayers": 8352,
      "67": 8353,
      "rian": 8354,
      "obser": 8355,
      "Ġrandomized": 8356,
      "Ġfluids": 8357,
      "Ġtag": 8358,
      "Ġunusual": 8359,
      "dem": 8360,
      "idance": 8361,
      "Ġjump": 8362,
      "shaped": 8363,
      "neighbor": 8364,
      "Ġlept": 8365,
      "Ġcumul": 8366,
      "seman": 8367,
      "acher": 8368,
      "wind": 8369,
      "fill": 8370,
      "diagonal": 8371,
      "Ġfoundation": 8372,
      "exper": 8373,
      "ats": 8374,
      "Ġexpert": 8375,
      "One": 8376,
      "Ġredund": 8377,
      "Ġanne": 8378,
      "Ġubiqu": 8379,
      "Ġlibrary": 8380,
      "poses": 8381,
      "ĠLocal": 8382,
      "Ġvast": 8383,
      "Ġmim": 8384,
      "ĠMor": 8385,
      "temperatures": 8386,
      "Ġalternating": 8387,
      "BI": 8388,
      "erman": 8389,
      "Ca": 8390,
      "Ġtetra": 8391,
      "Trans": 8392,
      "broad": 8393,
      "Ġfractal": 8394,
      "Ġesc": 8395,
      "Ġflares": 8396,
      "Ġatten": 8397,
      "Ġemerges": 8398,
      "subst": 8399,
      "ĠRGB": 8400,
      "Ġ22": 8401,
      "Ġinvestigates": 8402,
      "theories": 8403,
      "izers": 8404,
      "Ġhex": 8405,
      "avily": 8406,
      "Ġaddressing": 8407,
      "underlying": 8408,
      "matrices": 8409,
      "Ġseparately": 8410,
      "hadron": 8411,
      "Ġcapac": 8412,
      "pen": 8413,
      "enhance": 8414,
      "Ġcomment": 8415,
      "address": 8416,
      "Ġtuned": 8417,
      "Ġperformances": 8418,
      "Ġcrypt": 8419,
      "Ġfragmentation": 8420,
      "ĠKondo": 8421,
      "Ġdisplacement": 8422,
      "Ġeconomic": 8423,
      "Ġleg": 8424,
      "ĠSDSS": 8425,
      "Ġdegradation": 8426,
      "Ġfilament": 8427,
      ",$": 8428,
      "Ġtum": 8429,
      "Ġconjectured": 8430,
      "Ġmetals": 8431,
      "Ġclosure": 8432,
      "ura": 8433,
      "Ġimpacts": 8434,
      "decision": 8435,
      "dor": 8436,
      "def": 8437,
      "explored": 8438,
      "PM": 8439,
      "Ġdots": 8440,
      "Ġanalysed": 8441,
      "them": 8442,
      "Ġcommunities": 8443,
      "ĠCurrent": 8444,
      "Ġchemistry": 8445,
      "94": 8446,
      "break": 8447,
      "Ġdrawn": 8448,
      "ĠEd": 8449,
      "aracters": 8450,
      "Ġgranular": 8451,
      "resis": 8452,
      "absorption": 8453,
      "controlled": 8454,
      "realistic": 8455,
      "Ġimaginary": 8456,
      "quet": 8457,
      "iability": 8458,
      "Ġdiscretization": 8459,
      "ĠRadi": 8460,
      "fract": 8461,
      "86": 8462,
      "umping": 8463,
      "Ġcontract": 8464,
      "avities": 8465,
      "Ġfoot": 8466,
      "factors": 8467,
      "Ġnavigation": 8468,
      "*-": 8469,
      "ange": 8470,
      "Ġelliptical": 8471,
      "gtr": 8472,
      "Ġviews": 8473,
      "Ġthemselves": 8474,
      "Ġdon": 8475,
      "ĠMS": 8476,
      "Ġurban": 8477,
      "Ġconserved": 8478,
      "flat": 8479,
      "Ġperturbed": 8480,
      "ba": 8481,
      "Ġcondensation": 8482,
      "iguing": 8483,
      "ukawa": 8484,
      "Ġmovement": 8485,
      "Ġqui": 8486,
      "Ġattribute": 8487,
      "gtrsim": 8488,
      "Ġimm": 8489,
      "CI": 8490,
      "radio": 8491,
      "Ġrouting": 8492,
      "ails": 8493,
      "Ġhistorical": 8494,
      "ufact": 8495,
      "ceive": 8496,
      "flows": 8497,
      "calar": 8498,
      "Ġsustain": 8499,
      "\\}$": 8500,
      "%)": 8501,
      "ĠMpc": 8502,
      "ticity": 8503,
      "Ġtriangular": 8504,
      "cloud": 8505,
      "propto": 8506,
      "DL": 8507,
      "Ġlatest": 8508,
      "urns": 8509,
      "Ġworst": 8510,
      "ĠNot": 8511,
      "Ġhuge": 8512,
      "module": 8513,
      "Ġsentence": 8514,
      "property": 8515,
      "Ġcutoff": 8516,
      "Ġprobes": 8517,
      "vest": 8518,
      "Ġ500": 8519,
      "Ġdoped": 8520,
      "Ġencoura": 8521,
      "boson": 8522,
      "Ġcommutative": 8523,
      "computing": 8524,
      "diffic": 8525,
      "types": 8526,
      "ĠLipschitz": 8527,
      "Ġoptimality": 8528,
      "oys": 8529,
      "rotation": 8530,
      "Ġshall": 8531,
      "enable": 8532,
      "Hermitian": 8533,
      "code": 8534,
      "ompass": 8535,
      "}^{-": 8536,
      "balanced": 8537,
      "ĠRF": 8538,
      "Ġmembrane": 8539,
      "rown": 8540,
      "Experim": 8541,
      "Ġmeet": 8542,
      "CF": 8543,
      "Ġintelligent": 8544,
      "Ġemergent": 8545,
      "ĠNevertheless": 8546,
      "ĠGR": 8547,
      "Ġaugmented": 8548,
      "fortunately": 8549,
      "performed": 8550,
      "scenarios": 8551,
      "*}": 8552,
      "Ġaxi": 8553,
      "ĠSimulation": 8554,
      "Carlo": 8555,
      "Ġpercolation": 8556,
      "Ġexpress": 8557,
      "Ġruns": 8558,
      "Ġ:": 8559,
      "Ġmodulus": 8560,
      "energies": 8561,
      "Ġgaug": 8562,
      "ius": 8563,
      "actor": 8564,
      "Ġoffline": 8565,
      "Ġconstitu": 8566,
      "ush": 8567,
      "ĠOpen": 8568,
      "Ġbubble": 8569,
      "mathsf": 8570,
      "could": 8571,
      "Ġformulae": 8572,
      "Ġlab": 8573,
      "front": 8574,
      "Ġraw": 8575,
      "condens": 8576,
      "ses": 8577,
      "spar": 8578,
      "uncertainty": 8579,
      "romatic": 8580,
      "concept": 8581,
      "ern": 8582,
      "Ġsuppress": 8583,
      "structural": 8584,
      "sphere": 8585,
      "collap": 8586,
      "Ġinteractive": 8587,
      "fining": 8588,
      "MO": 8589,
      "Ġmanual": 8590,
      "Ġionized": 8591,
      "Ġepid": 8592,
      "AB": 8593,
      "thermod": 8594,
      "Ġbelief": 8595,
      "ĠCode": 8596,
      "Ġ27": 8597,
      "MI": 8598,
      "dorff": 8599,
      "92": 8600,
      "Ġtunable": 8601,
      "Ġproceed": 8602,
      "ye": 8603,
      "Ġrecovered": 8604,
      "Ġoccurring": 8605,
      "Ġhorizontal": 8606,
      "Ġneurons": 8607,
      "At": 8608,
      "Ġdeduce": 8609,
      "pon": 8610,
      "Ġexpansions": 8611,
      "traction": 8612,
      "Ġpriori": 8613,
      "Ġescape": 8614,
      "tere": 8615,
      "designed": 8616,
      "Ġmigration": 8617,
      "conjecture": 8618,
      "Ġslowly": 8619,
      "mma": 8620,
      "Ġcapturing": 8621,
      "mechanical": 8622,
      "Ġtau": 8623,
      "NL": 8624,
      "ĠExt": 8625,
      "attack": 8626,
      "oising": 8627,
      "Ġpermutation": 8628,
      "Ġder": 8629,
      "Ġfails": 8630,
      "Ġtoday": 8631,
      "Ġages": 8632,
      "AGN": 8633,
      "Ġmatches": 8634,
      "Ġcup": 8635,
      ")^{": 8636,
      "achieve": 8637,
      "Ġconven": 8638,
      "ellip": 8639,
      "($\\": 8640,
      "polic": 8641,
      "ĠProcess": 8642,
      "Ġspacetimes": 8643,
      "Ġecl": 8644,
      "Ġaimed": 8645,
      "numer": 8646,
      "ĠMHz": 8647,
      "calculated": 8648,
      "ĠJosephson": 8649,
      "Ġoperate": 8650,
      "ache": 8651,
      "Ġserves": 8652,
      "bright": 8653,
      "Ġchaos": 8654,
      "category": 8655,
      "Ġwalks": 8656,
      "respect": 8657,
      "ounted": 8658,
      "restric": 8659,
      "Ġupdated": 8660,
      "dle": 8661,
      "identification": 8662,
      "Ġspheres": 8663,
      "Ġexplains": 8664,
      "comparison": 8665,
      "heavy": 8666,
      "activity": 8667,
      "Ġcentre": 8668,
      "challenges": 8669,
      "dinger": 8670,
      "resonance": 8671,
      "total": 8672,
      "Ġsay": 8673,
      "discre": 8674,
      "approximate": 8675,
      "Ġtriplet": 8676,
      "Ġadequ": 8677,
      "Ġmerging": 8678,
      "increase": 8679,
      "ĠBel": 8680,
      "Ġrevisit": 8681,
      "ij": 8682,
      "ert": 8683,
      "Ġcoal": 8684,
      "demonstrated": 8685,
      "Ġongoing": 8686,
      "curvature": 8687,
      "Ġmedian": 8688,
      "canonical": 8689,
      "Ġultraviolet": 8690,
      "Ġdeformed": 8691,
      "Ġapproximated": 8692,
      "Ġreferred": 8693,
      "key": 8694,
      "ĠAg": 8695,
      "Ġchoose": 8696,
      "Ġreaches": 8697,
      "Ġobserver": 8698,
      "vective": 8699,
      "Ġimplementing": 8700,
      "Ġseparable": 8701,
      "Ġcompeting": 8702,
      "Ġrepeated": 8703,
      "ĠDec": 8704,
      "Ġreports": 8705,
      "proof": 8706,
      "jecta": 8707,
      "Ġdifficulties": 8708,
      "ausdorff": 8709,
      "Ġconflic": 8710,
      "Ġcrystalline": 8711,
      "Ġdocuments": 8712,
      "Ġansat": 8713,
      "Ġdecade": 8714,
      "ĠEnglish": 8715,
      "Ġstudent": 8716,
      "Ġacquisition": 8717,
      "Ġadjacent": 8718,
      "across": 8719,
      "icious": 8720,
      "Ġmagnitudes": 8721,
      "Ġideals": 8722,
      "ilinear": 8723,
      "ened": 8724,
      "comb": 8725,
      "Ġshadow": 8726,
      "Ġlimitation": 8727,
      "Ġartic": 8728,
      "textrm": 8729,
      "cession": 8730,
      "deed": 8731,
      "ĠAu": 8732,
      "partition": 8733,
      "via": 8734,
      "42": 8735,
      "urities": 8736,
      "iton": 8737,
      "Ġconvection": 8738,
      "Ġflo": 8739,
      "materials": 8740,
      "Ġinser": 8741,
      "ronic": 8742,
      "algebraic": 8743,
      "Ġrefinement": 8744,
      "Ġreleased": 8745,
      "Ġpump": 8746,
      "ires": 8747,
      "Ġannotated": 8748,
      "GW": 8749,
      "follow": 8750,
      "When": 8751,
      "tible": 8752,
      "Ġshorter": 8753,
      "vanishing": 8754,
      "ĠUAV": 8755,
      "Ġtailored": 8756,
      "quantit": 8757,
      "integrated": 8758,
      "Ġestablishing": 8759,
      "abelian": 8760,
      "ĠHamiltonians": 8761,
      "Ġsight": 8762,
      "scr": 8763,
      "Dif": 8764,
      "bifold": 8765,
      "Ġbits": 8766,
      "Ġbackgrounds": 8767,
      "Ġavailability": 8768,
      "la": 8769,
      "Ġcompil": 8770,
      "Ġoutflows": 8771,
      "theorem": 8772,
      "Ġcascade": 8773,
      "ols": 8774,
      "Ġmodify": 8775,
      "icities": 8776,
      "abla": 8777,
      "coordin": 8778,
      "candid": 8779,
      "Ġsemiclassical": 8780,
      "Ġreaching": 8781,
      "Ġannotation": 8782,
      "Ġtimescales": 8783,
      "otimes": 8784,
      "Ġinvestigating": 8785,
      "velopers": 8786,
      "uff": 8787,
      "lack": 8788,
      "~\\": 8789,
      "Ġencode": 8790,
      "ynchron": 8791,
      "yield": 8792,
      "lensing": 8793,
      "modeling": 8794,
      "BL": 8795,
      "ynman": 8796,
      "Ġpreferences": 8797,
      "Ġirregular": 8798,
      "langle": 8799,
      "Ġantenna": 8800,
      "ĠTi": 8801,
      "traject": 8802,
      "being": 8803,
      "awking": 8804,
      "Ġquotient": 8805,
      "Ġexposure": 8806,
      "ophis": 8807,
      "ĠRicci": 8808,
      "bary": 8809,
      "interpret": 8810,
      "Ġmultic": 8811,
      "Ġ$\\{": 8812,
      "Ġextracting": 8813,
      "ĠCS": 8814,
      "Ġexploits": 8815,
      "Ġbecoming": 8816,
      "Gener": 8817,
      "$_{\\": 8818,
      "Ġbilayer": 8819,
      "vor": 8820,
      "Ġsampled": 8821,
      "Ġunprecedented": 8822,
      "Ġprosp": 8823,
      "ercial": 8824,
      "Model": 8825,
      "ya": 8826,
      ")=\\": 8827,
      "ĠGAN": 8828,
      "observation": 8829,
      "ĠChandra": 8830,
      "Ġevolved": 8831,
      "Ġmonolayer": 8832,
      "Ġfourth": 8833,
      "Ġoscillators": 8834,
      "contributions": 8835,
      "zen": 8836,
      "Ġann": 8837,
      "means": 8838,
      "Ġexhibiting": 8839,
      "ĠPoinc": 8840,
      "segmentation": 8841,
      "utations": 8842,
      "hierarch": 8843,
      "ismic": 8844,
      "Ġentity": 8845,
      "AO": 8846,
      "Eu": 8847,
      "93": 8848,
      "Ġoct": 8849,
      "owards": 8850,
      "diag": 8851,
      "IV": 8852,
      "rogen": 8853,
      "Ġreproduced": 8854,
      "Ġfrust": 8855,
      "center": 8856,
      "uel": 8857,
      "ĠCy": 8858,
      "reason": 8859,
      "Ġbackward": 8860,
      "Ġpromise": 8861,
      "Ġprobably": 8862,
      "begin": 8863,
      "Ġdrug": 8864,
      "Ġrelying": 8865,
      "ĠMsun": 8866,
      "sensitivity": 8867,
      ");": 8868,
      "merg": 8869,
      "transitions": 8870,
      "'$": 8871,
      "nas": 8872,
      "Ġagrees": 8873,
      "Au": 8874,
      "feed": 8875,
      "Ġintr": 8876,
      "On": 8877,
      "Ġconclusions": 8878,
      "ophistic": 8879,
      "gr": 8880,
      "adaptive": 8881,
      "Ġregret": 8882,
      "ĠCauchy": 8883,
      "directly": 8884,
      "\\,\\": 8885,
      "=(": 8886,
      "eller": 8887,
      "ynamics": 8888,
      "reaction": 8889,
      "Ġrestriction": 8890,
      "Ġtransforms": 8891,
      "aterial": 8892,
      "Ġtransc": 8893,
      "ĠNS": 8894,
      "Ġtexture": 8895,
      "ĠNewton": 8896,
      "Specifically": 8897,
      "nabla": 8898,
      "ĠCloud": 8899,
      "Ġunlike": 8900,
      "sidering": 8901,
      "Ġunbounded": 8902,
      "Ġcontrols": 8903,
      "-$\\": 8904,
      "soci": 8905,
      "regime": 8906,
      "gluon": 8907,
      "Ġaz": 8908,
      "Ġdenote": 8909,
      "ilp": 8910,
      "imir": 8911,
      "Aut": 8912,
      "oney": 8913,
      "avoid": 8914,
      "zy": 8915,
      "Ġwinds": 8916,
      "isymmetric": 8917,
      "itably": 8918,
      "Ġensuring": 8919,
      "Ġroute": 8920,
      "characterized": 8921,
      "itten": 8922,
      "ĠDuring": 8923,
      "Ġsquared": 8924,
      "rometer": 8925,
      "BO": 8926,
      "RT": 8927,
      "ordination": 8928,
      "confirm": 8929,
      "Ġreturn": 8930,
      "ĠEnergy": 8931,
      "Ġansatz": 8932,
      "atibility": 8933,
      "Ġpacket": 8934,
      "oph": 8935,
      "Many": 8936,
      "Ġconvers": 8937,
      "oms": 8938,
      "Ġneither": 8939,
      "DD": 8940,
      "Ġpersistent": 8941,
      "vertex": 8942,
      "Ġmetast": 8943,
      "Ġvanishes": 8944,
      "Ġheterogeneity": 8945,
      "oron": 8946,
      "CE": 8947,
      "resource": 8948,
      "Ġprotons": 8949,
      "idirection": 8950,
      "along": 8951,
      "Ġexceptional": 8952,
      "UT": 8953,
      "Ġcer": 8954,
      "Ġtimescale": 8955,
      "Ba": 8956,
      "Ġjunctions": 8957,
      "either": 8958,
      "Ġbudget": 8959,
      "Ġreplic": 8960,
      "ĠAccording": 8961,
      "produced": 8962,
      "Ġdesirable": 8963,
[...]
